{
  ".TODO": 90988,
  "è»Ĭ": 102107,
  "ĠSqlDataAdapter": 46843,
  "Ġlanc": 75285,
  ".menuStrip": 42629,
  "æĶ«": 122106,
  "×©×ŀ×ķ×ª": 138480,
  "ç¬¬ä¸ĢèĬĤ": 117209,
  ".Amount": 62192,
  "Į": 234,
  "-mail": 11468,
  "ãģķãĤĮ": 83289,
  "à¸Ĭà¸±à¸¢": 131516,
  "Ġequipped": 18650,
  "),\"": 35393,
  "_bo": 56013,
  "ĠGlory": 58161,
  "Ġzale": 142463,
  "Ø¯ÙĬØ¯Ø©": 126842,
  "èĻ¹æ¡¥": 118725,
  "Þĭ": 149363,
  "à¸ŀà¸£à¸£": 139563,
  "Ġgreetings": 94085,
  "ĠâĪ": 11995,
  "Ġthá»±": 139514,
  "ãģĪãģŁ": 131986,
  "à¸ªà¸¡à¸²à¸£à¹Įà¸Ĺà¹Ĥà¸Łà¸Ļ": 143820,
  "ÐĵÐŀ": 137674,
  "Ġunacceptable": 42985,
  ",:]": 75767,
  "castHit": 82720,
  "Ø¯Ø¹ÙĪØ©": 136821,
  "åľ°è¯´": 104812,
  "ĠAutomobile": 85141,
  "ä¿¡": 21317,
  "Ġsure": 2704,
  "Ġprincipalmente": 94337,
  "Ġtowing": 88692,
  "åº§è°Īä¼ļ": 108865,
  "ãĢį": 10429,
  "Ġcriticism": 18817,
  "æľīè¶£çļĦ": 107935,
  "ä¸įä»ħåı¯ä»¥": 111601,
  "ĠcÃ´t": 70970,
  "à¹Ħà¸Ķà¹īà¸£à¸±à¸ļ": 125636,
  "bounded": 65686,
  "èĲ¥åĪ©": 115965,
  "å»īä»·": 115071,
  "ĠEnterprises": 65956,
  "Ġoverwhelming": 22024,
  "_inc": 31285,
  ".addEdge": 65228,
  "Ġblades": 41642,
  "Ġserve": 8683,
  "ð«ĺ": 100127,
  "ç»Ĵ": 108040,
  "cal": 5416,
  "èĪĽ": 119634,
  "ĠìŀĪì§Ģ": 141231,
  "oton": 25849,
  "Ġ×Ķ×ŀ": 123919,
  "Ġexhaustive": 72503,
  "çĭ¬ä¸Ģ": 115021,
  "axter": 72539,
  "Ġunsett": 67670,
  "Ġweer": 65150,
  "opus": 45870,
  "Canvas": 18226,
  "é©": 76080,
  "ĠÙĥ": 86941,
  "ä¸»é¡Į": 116566,
  "ĠÑĤÐ¾Ð²Ð°ÑĢÐ¾Ð²": 140659,
  "aoke": 68505,
  "ĠJenna": 87254,
  ".frame": 9140,
  "ensex": 95536,
  "âķĺ": 148319,
  "ìļ°": 40281,
  "à¸«à¹īà¸Ńà¸ĩ": 126425,
  "ĠPhilosophy": 45869,
  "ĠAgricult": 27900,
  "consum": 66676,
  "ÅĽmie": 133580,
  "æĥ³è±¡åĬĽ": 114376,
  "ĠÑĢÐ°ÑģÐ¿Ð¾Ð»": 134425,
  "×¢×Ļ×ª×ķ×ł×Ĳ×Ļ": 143196,
  "Ġward": 25657,
  "_avatar": 51104,
  "-chat": 60535,
  "Ġprediction": 19639,
  ".YesNo": 76894,
  "Form": 1838,
  ".DrawString": 73768,
  "ĠWE": 19677,
  "Ġbrutally": 69187,
  "ĠLilly": 81834,
  "åĪĽä¸ļ": 100388,
  "Ġeuros": 32488,
  ".properties": 20986,
  "_Width": 77609,
  "Ġactionable": 91078,
  "ĠPotter": 29327,
  "Ø¯ÙĪÙĦ": 131499,
  "ĠSolutions": 22676,
  "liÄŁin": 133752,
  "Youtube": 91667,
  "ĠÐ´ÐµÐ¼": 141834,
  "_head": 13138,
  "ĠStrait": 82063,
  "eventId": 90356,
  "ĠSiber": 67500,
  "zbek": 75013,
  "_float": 17586,
  "appoint": 11671,
  "ãģķãģĽãģ¦éłĤ": 142958,
  "è¿Ļè®©": 110600,
  "ï¾Ĩ": 144694,
  "Ġalliance": 29664,
  "æľį": 43209,
  "à¸Ħà¸§à¹īà¸²": 137975,
  "×Ļ×ľ×ķ×ª": 133613,
  "_AUT": 53716,
  "El": 6582,
  "arrera": 82131,
  "Ġthousands": 9037,
  "Ġwont": 39364,
  "ancers": 31742,
  "×ŀ×ĸ": 125581,
  "ìĹ°": 125568,
  "Const": 19167,
  "Ġworkshops": 34836,
  "Ġkt": 18541,
  "ÙĤ": 27490,
  "ĠPerspectives": 93885,
  ".constant": 30030,
  "à¸²à¸£": 75741,
  "/Library": 59077,
  "âĢĵ": 4142,
  "Ġhor": 4812,
  "Ġchá»§": 128427,
  "ðĿĵĺ": 151317,
  "æĢ»éĩı": 106028,
  "å¤§èĥĨ": 106388,
  "fortawesome": 56663,
  "dB": 40955,
  "éĶ¢": 121224,
  ".ResponseEntity": 67347,
  "ĠACCESS": 50552,
  "Ġradiant": 76343,
  "(',',": 34321,
  "ëĵ¤ìĹĲê²Į": 132812,
  "Ġimminent": 50451,
  "Ġthinly": 98431,
  "à¸ļà¸²à¸ĩà¸Ħà¸Ļ": 140400,
  "å¤§éĥ¨åĪĨäºº": 116378,
  "Ø´ÙĩØ¯": 129685,
  "Ġaccuses": 86056,
  "bye": 28374,
  "(Art": 82484,
  "å°½åĬĽ": 110121,
  "æĦŁåĨĴ": 107061,
  ".WHITE": 42382,
  "='.$": 24889,
  "Ø´Ø±ÙĥØ©": 136433,
  "ĠsÅĤ": 74258,
  "åĨį": 87256,
  "ĠAbby": 84448,
  "èĿĩ": 119470,
  "é¹Ĵ": 123240,
  ".Generation": 66516,
  "èĩªè±ª": 109011,
  "ĠtaskId": 60527,
  "Ġsail": 29403,
  "ĠPlanned": 46140,
  "Ġfences": 69155,
  "éĢīèĤ¡": 118731,
  ".connect": 10800,
  ".lu": 90000,
  "ServletContext": 78701,
  "(content": 15063,
  "Objective": 78306,
  "çĥŃè®®": 112353,
  "æĢ¨": 102852,
  "çĶ³ãģĹè¾¼ãģ¿": 141831,
  "ĠLinearLayoutManager": 45851,
  "ĠuwagÄĻ": 134908,
  "Ġinaugur": 81000,
  "è¿ĽåĨĽ": 110285,
  "ĠKrish": 60964,
  "ard": 567,
  "èľ©": 121420,
  "ĠentityId": 93042,
  "æ¢³": 102882,
  "Ġ×ķ×Ĵ": 136076,
  "ìĹ¾": 146742,
  "Ġmedication": 23221,
  "æ»¡äºĨ": 106973,
  "ãģıãĤĬ": 126124,
  "Ä±r": 29233,
  "ĠÐ±ÑİÐ´Ð¶": 136764,
  "uman": 7136,
  "ï¼ŁĊ": 94432,
  "-sm": 4668,
  "å¯¹å¤ĸ": 102330,
  "(plan": 74727,
  "Ġgiant": 14538,
  "Ġdividend": 45880,
  ">{\"": 88863,
  "åĬ¨æīĭ": 107169,
  "ADV": 90842,
  "Ã©is": 87018,
  "Ġesposa": 84890,
  "****************": 893,
  ".some": 47947,
  "pher": 28082,
  "Ġstockings": 75605,
  "ĉQ": 16995,
  "ĠÐ¿ÑĢÐµÐ·Ð¸Ð´ÐµÐ½ÑĤ": 137704,
  "Jamie": 96650,
  "ĠJudge": 20207,
  "åĨģ": 123705,
  "(us": 80644,
  "oltage": 26489,
  "_markers": 92082,
  "Ġnhiá»ħm": 133637,
  "Ġå±": 79621,
  "ì°Ł": 147220,
  "Ġmasking": 78076,
  "Ġspiele": 91855,
  "ingular": 41880,
  "å¨ĺå¨ĺ": 118672,
  "à¸ľà¸¹à¹īà¸Ĭà¸²à¸¢": 139310,
  "Ġhwnd": 52832,
  "ë¸¡": 150254,
  "zzo": 45648,
  "ots": 2412,
  "ëĿ¼ëıĦ": 127937,
  "Booking": 41828,
  "Ġcs": 10532,
  "ĠIRS": 33383,
  "ĠAcademic": 41070,
  "(\"**": 91389,
  "é¥®é£Ł": 104579,
  "care": 10506,
  "ĠOswald": 89350,
  "']));Ċ": 31239,
  "Peripheral": 87404,
  "Ġcloak": 61394,
  "_IGNORE": 49974,
  "th": 339,
  "Ġscrew": 21966,
  ".connection": 20310,
  "çĪ¾": 105567,
  "éĹ©": 119549,
  "Ġviewer": 25708,
  ".')Ċ": 20867,
  "(start": 10639,
  "caff": 23778,
  "ĉRTHOOK": 40450,
  "namespace": 2231,
  "ĠWroc": 139221,
  "Ġdá»ĭp": 137789,
  "Ð²ÑĪÐµÐ¹": 143294,
  "Ġlighting": 17716,
  "×ĳ×Ļ×§×ķ×¨": 134802,
  ".mapping": 56748,
  "à¸Ńà¸²à¸Īà¸²à¸£": 137671,
  "ĠXCTAssert": 20272,
  "Ä©": 124536,
  "éĹªéĹª": 117926,
  "×ŀ×©×ļ": 125862,
  "ì¦ĺ": 140891,
  "ïŃĺ": 146502,
  ":end": 25789,
  "Ġ###": 16600,
  "Ġamendment": 27139,
  "ĠØ§ÙĦØ£ÙĪÙĦ": 126506,
  "Picker": 10945,
  "æķ¬": 100098,
  ",%": 18191,
  "à¸§à¸´à¸Īà¸±à¸¢": 134835,
  ".hom": 93991,
  "owaÄĩ": 49147,
  "æķ´åĲĪ": 102102,
  "ĠJennifer": 29650,
  "\");Ċ": 797,
  "Ġkeyboards": 70302,
  ")?Ċ": 86427,
  "æ¦·": 121389,
  "Ġemlrt": 96212,
  "åĽŀå¤´": 102983,
  "ï¦": 123821,
  "Ġminecraft": 73873,
  "-this": 60191,
  "_DIGEST": 94901,
  "ì©Ķ": 144515,
  "tracts": 36188,
  "{%": 66365,
  "Ġadjunct": 89595,
  "_slots": 54161,
  "_BINDING": 85172,
  "Ġshines": 64780,
  "Ġgender": 9825,
  "ç¾İèªī": 112497,
  "Ġparticipation": 20239,
  "ortex": 44592,
  "Ġerotico": 73138,
  "Ã§as": 45278,
  "è½»æĺĵ": 106609,
  "Ġinvestigators": 25381,
  "ĠVirtual": 20721,
  "ĠHASH": 58857,
  "wb": 20211,
  "chodzÄħc": 138993,
  "boro": 34867,
  "date": 1028,
  "Ġfundraising": 36319,
  "ĊĊĊĊĊĊĊĊĊĊĊ": 82361,
  "ĉfreopen": 89679,
  "ç»ıè´¹": 106450,
  "Ġfingertips": 71048,
  "ç¼Ī": 121089,
  "éĻ¢åŃĲéĩĮ": 118184,
  "abcdefgh": 56747,
  "è¿ĳå¹´æĿ¥": 104255,
  "åĥ¬": 123363,
  "Ġclarity": 31273,
  "ĠÐŁÑĢÐµ": 134004,
  "Ġmáº¹": 128850,
  "ÚŃ": 146677,
  "à¹Ģà¸Ľà¹īà¸²à¸«à¸¡à¸²à¸¢": 138105,
  "(HttpStatusCode": 43722,
  "Ġtreated": 11758,
  "ĠwireType": 89243,
  "/WebAPI": 94897,
  "ĠGener": 2607,
  "éĵŁ": 120693,
  "ĠÐ¤ÐµÐ´ÐµÑĢ": 127828,
  "ictureBox": 10201,
  "(compare": 94951,
  "×Ķ×ª×Ĺ×Ļ×ľ": 134221,
  "ulent": 28480,
  "(),'": 59000,
  "_GAIN": 67068,
  "ĠAutism": 77663,
  "ĠÙĦ": 56794,
  "é±¾": 122861,
  "That": 4792,
  "Ġdevelopmental": 46906,
  "ä¸ĩåįĥ": 103690,
  "ç¼¯": 121696,
  "toHaveBeenCalledWith": 56147,
  "å»ºç«ĭäºĨ": 104809,
  "_NUMERIC": 84393,
  "æĿ¥çľĭçľĭ": 101695,
  "_code": 4136,
  "Ġtod": 11530,
  "âĢĻd": 6925,
  "obby": 10317,
  "äĲĥ": 123058,
  "ĠCOMPUTER": 88801,
  "Ġnanny": 98257,
  "ĉGet": 37654,
  "Ġillustrates": 45380,
  "Ġcultural": 12752,
  "Ġhunted": 79169,
  "è¼¯": 119229,
  "inson": 28873,
  "éŃį": 121913,
  "à¹Ĥà¸£à¸ĩà¸ŀà¸¢à¸²à¸ļà¸²à¸¥": 139256,
  "Ġihm": 58442,
  "ĠSized": 21967,
  "'o": 93472,
  "Ġtomatoes": 40513,
  "ãĢĶ": 103918,
  "Ġcomputed": 24182,
  "à¸£à¸±à¸ģà¸©à¸²": 126909,
  "ĠCrimson": 66077,
  "ercises": 47715,
  "Ø¥ÙĬÙħ": 138798,
  "episode": 39291,
  "ë©¥": 148419,
  "*>&": 62276,
  "ì´Ĳ": 146062,
  "ÑĤÐ°Ð¹": 132985,
  "Txt": 35629,
  "ventus": 66460,
  "Ġwide": 6884,
  "_BATCH": 74009,
  "ĠÙħÙĨØª": 143122,
  "æ·±è¿ľ": 112303,
  "riz": 24741,
  "ajaran": 84033,
  "ä»ķ": 107669,
  "ĠScre": 81698,
  "rious": 83618,
  "Ġsynthesis": 38875,
  "odoxy": 92298,
  "_decode": 15227,
  "ÐµÐ¿": 66024,
  "ached": 3854,
  "ĠDARK": 88652,
  "albums": 61471,
  "-order": 23810,
  "ĠÐ´Ð¾ÑħÐ¾Ð´": 136937,
  "Ġurl": 2515,
  "emand": 20096,
  "Ġcommitting": 39483,
  "ç´§ç´§": 102987,
  "(owner": 39805,
  "ìĦ°": 144461,
  "roup": 886,
  "zoek": 81613,
  "à¸Ńà¸²à¸£": 138774,
  "wÃ³j": 132444,
  "ĠgetService": 85869,
  "_processors": 73153,
  "Ġtouted": 66428,
  "otch": 93607,
  "æ½ĩ": 103448,
  "ĠWW": 28044,
  "ðŁİ³": 149183,
  "æ²¹çĶ»": 112764,
  "ĠAvailability": 51810,
  "å¹¿æ³ĽåºĶçĶ¨": 112306,
  "è¿Ľåħ¥åĪ°": 111695,
  "ĠĠĠĠĠĠĠĠĊĠĠĠĠĊ": 88998,
  "Ġambush": 78965,
  "Compare": 27374,
  "çļĦæŃ¥ä¼Ĳ": 112552,
  "short": 8676,
  "á¶¤": 149605,
  "á»§": 42504,
  "anta": 8260,
  "éĢļåħ³": 110764,
  "Ġscholarly": 62581,
  "ð«ĳ": 122634,
  "æĺ¥æĻļ": 111258,
  ",Integer": 61198,
  "subjects": 64782,
  ".Exp": 49844,
  "äºĭè¿¹": 110198,
  "à¹ģà¸Łà¸Ĭà¸±à¹Īà¸Ļ": 141445,
  "ðŁł": 149946,
  "íħģ": 145915,
  "_TARGET": 29299,
  "è¶ħè¿ĩäºĨ": 110193,
  "_embedding": 51502,
  "Ġhá»įc": 128292,
  "Ð°ÑĢÐ¸": 125947,
  "(atom": 81131,
  "ä¼ģä¸ļå®¶": 105410,
  ".Assert": 11711,
  "çī¹æ®ĬçļĦ": 107286,
  "Ġtire": 27287,
  "Ġmktime": 93049,
  "Ġcoal": 11497,
  "ä¸ĭæīĭ": 111798,
  "_lstm": 96397,
  "Ġure": 52460,
  "ournal": 4931,
  "à¸Īà¸Ńà¸ĩ": 135658,
  "tagName": 73273,
  "ĠFName": 96524,
  "iáº¿t": 133545,
  "ĠSafety": 18702,
  "(dc": 63296,
  "åĥįãģı": 141735,
  "à¸ªà¸«à¸£à¸±": 138242,
  ".flags": 27203,
  "ssa": 52107,
  "æ¶²æĻ¶": 112770,
  "×¤×Ł": 132005,
  "çĥŁèįī": 114549,
  "ç½Ĺæĸ¯": 102038,
  "Ġquindi": 76608,
  "ĠShed": 94452,
  "(Il": 28382,
  "ãģ§ãģį": 124086,
  "Low": 24187,
  "çľĭä¸įè§ģ": 111819,
  "-effective": 52321,
  "ĠmainBundle": 77258,
  "ĠApartments": 66551,
  "ĠgiÃºp": 128430,
  "ìĹĲëıĦ": 130612,
  "ĠOccupy": 73935,
  "ĠManufacturing": 41077,
  "ë²°": 148921,
  "ÜĹ": 147281,
  "Ã¡g": 27693,
  "ĠNCAA": 33160,
  "eway": 24723,
  "ductive": 67143,
  "à¹ļ": 147879,
  "Ġswo": 33127,
  "Ð½Ð¸Ð¼": 125119,
  "izard": 13722,
  "ĠWag": 85893,
  "Ġif": 421,
  "äºĽ": 97084,
  "Ġbrunch": 69817,
  "(off": 85103,
  "ê²ħ": 145840,
  "çķ¤": 122805,
  "ĠSuppress": 86798,
  "Ġtpl": 60979,
  "çªģå¦Ĥåħ¶æĿ¥": 115323,
  "Ġ×ĳ×Ĺ": 124842,
  "Ġdemocr": 12074,
  "à¤ŀ": 148492,
  "Ġcareful": 16585,
  "Ã©nergie": 136348,
  "åįĹäº¬å¸Ĥ": 112891,
  "ider": 1776,
  "ĠëıĻìĭľ": 143408,
  "ØªÙĤÙĬÙĬÙħ": 134596,
  "(optarg": 70143,
  "ï¦ĸ": 151136,
  "Ġswirl": 86360,
  "Ġfrost": 44734,
  "ARING": 91023,
  "*I": 89242,
  "è¤¥": 119497,
  "/weather": 77758,
  "Ð°ÑĤÐ¾ÑĢ": 57306,
  "ĠÃ©lÃ¨ves": 142919,
  "ĠØ¥Ø¯Ø§Ø±Ø©": 132113,
  "clinic": 89265,
  "ĠNah": 71988,
  "Ġ×ľ×Ķ×¢×ĳ×Ļ×¨": 140069,
  ".Assembly": 89617,
  "Ġsexism": 67995,
  "ĠÐ¾ÑĦÐ¾ÑĢÐ¼": 137412,
  "íħ£": 151072,
  "ĠElijah": 82592,
  "Ġdyn": 31070,
  "ĠcallBack": 70897,
  "ëį¤": 144452,
  "ĠLIABLE": 17386,
  "âĺ·": 150134,
  "=query": 79194,
  "jamin": 25246,
  "---ĊĊ": 44364,
  "Ġmenggunakan": 80327,
  "ä¸įå¾Ĺä¸į": 102416,
  "-worker": 65516,
  "ĠRover": 52176,
  "Jeremy": 75565,
  "ë¬¼": 126251,
  "ĠØ§ÙĦØ¥Ø¹ÙĦØ§Ùħ": 132919,
  "-framework": 73397,
  "ĠTIMEOUT": 90846,
  "ðŁİ¶": 145234,
  "provide": 61456,
  "ToLocal": 96856,
  "ãĤ¨ãĥįãĥ«ãĤ®ãĥ¼": 140476,
  "×ĺ×ľ×ķ×ķ×Ļ×ĸ": 136955,
  "Ġoffender": 46653,
  "ĠSomeone": 34172,
  "ĠÑģÐ±Ð¾ÑĢ": 134005,
  "elper": 2947,
  ".position": 6187,
  "Ġ×ł×Ķ×ĵ×¨": 140921,
  "ãĤĦãģ¯": 132059,
  ".DataGridViewColumnHeadersHeightSizeMode": 72203,
  "Ġpager": 52588,
  "æĶ¶åĽŀ": 108948,
  "ĠHá»Ļi": 129935,
  "ĠWinchester": 79471,
  "ĉorder": 42245,
  "ĠÄĳÆ°Æ¡ng": 138051,
  "åĸĩåıŃ": 114980,
  "×ª×ŀ×Ļ×ĵ": 138765,
  "-flag": 77950,
  "ĠÐ¸Ð½ÑĤÐµÑĢÑĮÐµÑĢ": 143275,
  "Z": 57,
  "ImGui": 37950,
  "æ·ł": 120780,
  "Ġgeography": 53142,
  "ðŁĨĥ": 151378,
  "Ġexpedition": 50164,
  "å°ıåºĹ": 114933,
  "ĠfChain": 95183,
  "(AF": 57867,
  "ëłģ": 144639,
  "Ġpolicing": 54571,
  "æľŁéĸĵ": 113992,
  "disc": 16822,
  "à¸ªà¸Ļà¸±à¸ļ": 133585,
  "Ġmlx": 75411,
  "-bedroom": 66867,
  "áĽĻ": 150551,
  "ĠMEP": 90836,
  "KEEP": 51801,
  "'''čĊ": 55722,
  "ãŃķ": 122431,
  "Comment": 10677,
  ")findViewById": 35289,
  "ĠScripture": 53150,
  "ÙħØ±Ø©": 133276,
  "alous": 29443,
  "Ġknocked": 31985,
  "ĠProductions": 51864,
  "Ġillumin": 42987,
  "-is": 30430,
  "ĠTimeUnit": 36767,
  ".Push": 34981,
  "ynos": 80393,
  "-fired": 71578,
  "Ġcrispy": 72524,
  "Ġprotobuf": 69634,
  "ĠBlues": 32325,
  "Ġconstraints": 16982,
  "Ġdiversos": 94551,
  "Ġatleast": 89928,
  "éĳ": 104905,
  "ĠXT": 61866,
  "ARK": 9094,
  "×©×ķ×Ŀ": 129000,
  "comed": 29990,
  "ðĲ¤ķ": 150028,
  "ziel": 64177,
  ":\",Ċ": 55120,
  "Ġcharacteristic": 28583,
  "Ġreimburse": 95160,
  "_Path": 66388,
  "gear": 54727,
  "Ġ×©×Ĳ×Ļ×Ł": 131794,
  "ĠPhase": 27573,
  "á¬": 128235,
  ".uf": 81417,
  "\">'.": 56321,
  "ĠEXAMPLE": 66246,
  "-update": 38860,
  ".TabPage": 43142,
  "ĠStrat": 52935,
  "Ġsill": 84267,
  "Ġcached": 20579,
  "Ġprovinc": 27807,
  "Ġlongevity": 57119,
  "Ġprudent": 73878,
  "-la": 52826,
  "è©³ãģĹãģı": 140192,
  "(style": 37283,
  "Ġcoils": 70760,
  "ðŁļ£": 147169,
  "ĠiP": 76486,
  "Ġboosting": 54928,
  "ĠÄĲá»Ļ": 131283,
  "_reserved": 74913,
  "âĹī": 145206,
  "ĠADDR": 80514,
  "amps": 14647,
  "ĠSaras": 94814,
  "Ġaccel": 66511,
  "ĠCargo": 61288,
  "Ġdáº¡y": 132856,
  "ellt": 32863,
  "çļĦæĢ§æł¼": 109483,
  "Zoom": 25645,
  "_java": 77323,
  "waves": 57265,
  "ancellable": 83603,
  "ãģ¨ãģĵãĤįãģ§": 134750,
  "_SYMBOL": 23598,
  "çļĨãģķãĤĵ": 134859,
  "Mon": 11095,
  "inez": 38295,
  "Ġdevel": 89770,
  "ĠØ§ÙĦÙĥÙħØ¨ÙĬÙĪØªØ±": 143792,
  ".nativeElement": 48829,
  "ĠCaps": 43365,
  "Ġ[]);Ċ": 42197,
  "ä¸ĢåĲĳ": 108615,
  ".rnn": 97024,
  "é¾ĥ": 121169,
  "Ġmourning": 75250,
  "ĠCraw": 43666,
  "åĨ¬å¥¥": 101827,
  "ĠTas": 44687,
  "Û¼": 150261,
  "Ġbasement": 30641,
  "<TEntity": 45834,
  "_drvdata": 79544,
  "Ġfi": 9136,
  "éķ³": 122066,
  "Ġcolossal": 96837,
  "Ġdosage": 45940,
  "ĠCleans": 85662,
  "$instance": 95606,
  "ĠÃ³rgÃ£o": 143014,
  "<Category": 54731,
  "ĠMiller": 17035,
  "Ġpetition": 20361,
  "ĉscene": 75666,
  "à¸Ńà¸²à¸£à¸¡à¸ĵà¹Į": 138776,
  "Ġviews": 6194,
  ".setData": 23159,
  "ØµØ±": 124148,
  "Ġtb": 16363,
  "ress": 673,
  "pkt": 46775,
  ".deepEqual": 48134,
  "Ð¸Ð¾Ð½Ð°": 126079,
  "_pkg": 64739,
  "ĠBud": 36135,
  "æķ°åŃĹè´§å¸ģ": 118215,
  "Ġtournaments": 39061,
  ":description": 93323,
  "Assignable": 59029,
  "FontAwesome": 46527,
  "Ġtrag": 71602,
  "_approved": 86850,
  "ÂĢ": 41416,
  "setBackground": 90525,
  "SID": 36499,
  "éĩĿ": 103594,
  "ĉcs": 71899,
  "åĺ²ç¬ĳ": 114995,
  "ìĬ·": 144058,
  "ĠEagles": 31609,
  "ĠkoÅĦ": 127982,
  "Ġneglig": 35056,
  "Ġppl": 88428,
  "è¡Ģç®¡": 102890,
  "ĠKotlin": 92854,
  "Ġ×ŀ×Ĳ×ķ": 135880,
  "åį¡å°Ķ": 113653,
  "ãģ¨ä¸Ģç·Ĵãģ«": 140469,
  "ĠoutputPath": 95017,
  "ectl": 52669,
  "ĠMits": 59576,
  "Ġyok": 89677,
  "å¦¹": 100304,
  "ĉIntent": 77339,
  "å¼ºç¡¬": 118802,
  "æĺ¯è°ģ": 105518,
  "Ġholy": 26725,
  "mn": 21775,
  "Ġhatte": 42668,
  "à¸ĭà¸²": 130098,
  "ĠprÃ¡ctica": 134408,
  "ãģ£ãģıãĤĬ": 127821,
  "è¤ĵ": 121520,
  ".lp": 79332,
  "ĠÐ¢Ð¾": 131345,
  "_names": 9187,
  "(send": 47617,
  "_));Ċ": 68464,
  "brate": 64116,
  "ĉend": 6246,
  "(sel": 63453,
  "compile": 20433,
  "erty": 1344,
  "ickest": 69752,
  "_intensity": 80187,
  "iguous": 27029,
  "ĠØ¨Ø´ÙĥÙĦ": 128953,
  "arduino": 90201,
  "ĠsegÃºn": 62015,
  "éŃĨ": 121467,
  "æĸ°èģŀ": 111716,
  "Ġacross": 3941,
  "Ġcomed": 62013,
  "ĠØ¬Ø§Ø¡": 131813,
  "=>$": 29798,
  "Bu": 59808,
  "EAR": 20535,
  "ĠDiversity": 64971,
  "äºĶå®ĺ": 117785,
  "è°ĥåĳ³": 115024,
  "Friendly": 96505,
  "ĠTURN": 82369,
  "ĠAccessories": 39719,
  "Ġ[{": 18466,
  "Ġul": 8557,
  "ä¸»ç¾©": 115753,
  "ĠÃ½": 128431,
  "Ġsaid": 1053,
  "ĠePub": 88617,
  "unde": 28865,
  "éĽĩ": 101816,
  "åºĦ": 99939,
  "Ġoutgoing": 36698,
  "Ġmanifestations": 77067,
  "Ġreserve": 20499,
  "Ġmisdemean": 50626,
  "ãĪ¬": 150253,
  "Ġalerted": 66669,
  "æľīæľŁå¾Ĵ": 112050,
  "spiel": 80885,
  "ĠCham": 41783,
  "ĠMC": 20869,
  "æ§ģ": 121387,
  "Ġdust": 15797,
  "Ġcheckpoints": 67209,
  "é²§": 121652,
  "/dist": 19537,
  "ĠFrm": 91995,
  "Ġcáº§m": 134650,
  "è²¸": 100944,
  "stre": 66423,
  "ĠsÆ¡": 129582,
  ".mm": 37008,
  "Ø§ÙĦØªÙĩ": 142253,
  ">.ĊĊ": 94367,
  "ĠFight": 18629,
  "_nonce": 48508,
  "Ð¸ÑĢÐ°": 126100,
  "ĠmMap": 74470,
  "Ġ×¦×ķ×¨×ļ": 134046,
  "å©ļ": 99838,
  "æĸ°å¸¸æĢģ": 118870,
  "áł°": 149585,
  "ëĿ¼": 50340,
  "ereo": 64853,
  "Ġsh": 557,
  "Ġtá»«ng": 128981,
  "toi": 52609,
  "èĬ³": 102261,
  "ĠØ¹Ø´Ø±": 130520,
  "navigator": 63098,
  "Ġfeels": 11074,
  "åıĪå¥½åıĪ": 112388,
  "_EL": 62283,
  "HD": 19147,
  "ĠWal": 14574,
  "ÑĢÐ¾Ð³": 136034,
  "ivering": 83940,
  "Ġlamin": 78433,
  "ì½ľ": 144063,
  "Ġbacklog": 70722,
  "å¸³": 103694,
  "Apps": 53602,
  "å¹´èĩ³": 108798,
  "æ¸ħæĸ°": 106981,
  "asd": 79102,
  "Ã¯": 37572,
  "urgical": 56573,
  "ĠEntryPoint": 72685,
  "ĠLenovo": 63699,
  "Ġsecret": 6234,
  "á¡µ": 150564,
  "_TEXTURE": 17208,
  "Ġjailed": 54506,
  "Ġmods": 28254,
  "åĳĬè¯ī": 99957,
  "ĠhÃ´": 132658,
  "Ġcur": 2847,
  "ĠTuáº¥n": 140593,
  "æĪĳä»¬è®¤ä¸º": 113082,
  "ĠKarn": 60223,
  "(UUID": 65664,
  "×ķ×ĵ×Ļ": 125380,
  "åı¯ä»¥ä½¿": 111898,
  "cp": 4672,
  "ĠSteam": 21825,
  "Votre": 77805,
  "-processing": 69193,
  "há»ķ": 137390,
  "æµĻ": 100779,
  "(Boolean": 39969,
  "navigate": 70839,
  "èĪ·": 120738,
  "Ġmommy": 81140,
  "dÄ±klarÄ±": 135015,
  ".servers": 95808,
  "Ġembroidery": 84827,
  "ĠBray": 87820,
  "æĴĦ": 121356,
  "ĠOc": 82452,
  "ð¬¶ł": 123642,
  "ĠWebGL": 85841,
  "Î°": 147287,
  "adders": 80208,
  "Ġpacked": 19375,
  "ãĥĬãĥ³": 138077,
  "ĠcomeÃ§a": 136997,
  "ĠAngebot": 81020,
  "ĠDone": 27357,
  "ĠHttpClientModule": 53649,
  "StateException": 35368,
  "ï¨Ī": 148362,
  "Ġnutrit": 68614,
  "å¢ĥ": 99279,
  "Ġinfancy": 85517,
  "à¸ķà¸£à¸²": 127756,
  "Ġler": 75020,
  "_m": 717,
  "å¤§çº²": 116472,
  "\"...": 52570,
  "ĠÐľÐ¸Ð½": 134279,
  "âĢ¦..": 52163,
  "dap": 91294,
  "(stop": 60170,
  "ç¦¤": 123502,
  "DEFINED": 46651,
  "difference": 59251,
  "reserve": 56985,
  "Ġimperative": 47596,
  "ĉelement": 43707,
  "ĠLawrence": 27474,
  "å·²è¢«": 107264,
  "æĶ¿åħļ": 115510,
  ".Sample": 76266,
  "Ġsage": 38261,
  "(problem": 81281,
  "ĠVerd": 92707,
  "appointment": 51101,
  ".res": 4705,
  ")s": 16466,
  "Ġestruct": 75409,
  "eff": 6445,
  "åŁı": 122404,
  "Ġpremiered": 84070,
  "çĬ°": 119572,
  "âĤ¯": 149397,
  "Ø¨Ø§Ø·": 130836,
  "Ġnach": 14047,
  "_strike": 71717,
  "predictions": 91327,
  "åĸĦèī¯": 107749,
  "Ġfoul": 39784,
  "/Error": 96259,
  "tingham": 59135,
  "Ġshirts": 36724,
  "è¯ķè¯ķ": 108179,
  ".Types": 29147,
  "(sc": 16860,
  "ĉĉĉĉĉĉĉĉĉĊ": 51480,
  "ĠSPA": 76408,
  "scratch": 54055,
  "äººäºĭ": 105692,
  "ĠÑĢÐµÑĨÐµÐ¿": 138852,
  "éĿ¢ä¸´": 101310,
  "Ġcoleg": 89055,
  "+%": 83983,
  "ëĦĮ": 144413,
  "åįĥäº¿": 111722,
  "__',": 87510,
  "Similarly": 67691,
  "åıĺæĽ´": 105308,
  "ĠhasNext": 82624,
  ".bias": 58252,
  "@admin": 90994,
  "èĬ±åįī": 108498,
  "Ġganz": 38805,
  "(admin": 35677,
  "Ġ****************************************************************": 22292,
  "ĠvalueType": 96438,
  ".Template": 52530,
  "(close": 68890,
  "ÑİÑĤ": 69029,
  "ìħľ": 144403,
  "ì§¦": 148654,
  "EDURE": 83060,
  "Ġlot": 2696,
  "âĽª": 147381,
  "(TR": 68804,
  "à¸«à¸¸": 136131,
  ".AutoComplete": 82196,
  "elyn": 91509,
  "çŁĹ": 119531,
  "ÙĨØª": 124126,
  "Ġquestion": 3405,
  "ANGER": 92368,
  "Ġident": 3524,
  "Ġinfinite": 23809,
  "åİĦ": 112803,
  "ibbean": 32059,
  "ĠÙĦØ¨ÙĨØ§ÙĨ": 133093,
  "åĲŃ": 119315,
  "ĠXPAR": 91154,
  "Ġsubdivisions": 91445,
  "Assert": 8534,
  "Ġdivisions": 36501,
  "<TreeNode": 80690,
  "Ġì¡°íļĮ": 97167,
  ".mockito": 29631,
  "ĠParents": 42926,
  "_playing": 83857,
  "å¸»": 120679,
  "ĠscaleY": 90333,
  "erland": 86954,
  "åħ±äº§": 102518,
  "Ġgad": 33216,
  "ĠimageURL": 89861,
  "ĠEntityManager": 48767,
  "ĠFor": 1752,
  "æĪĺæľº": 112124,
  "ĠThinking": 52289,
  "_tag": 9372,
  "ĠpÃ©rd": 143906,
  "ĠPharmaceutical": 58273,
  "âīĮ": 150650,
  "Ġweiber": 70349,
  "Ġsubmits": 94035,
  "å°±æĺ¯è¿Ļæł·": 109310,
  "ĠMagnetic": 62655,
  "à®¯": 150052,
  "å¼łå®¶åı£": 115874,
  ".SetKeyName": 82103,
  "_INV": 40107,
  "×Ĵ×©×ª": 134024,
  "Ġpresentation": 15496,
  "ĠSabha": 86464,
  "Ð½ÑĨÐµ": 138551,
  "Ġvariable": 3890,
  "ãĥ¡ãĥ¼ãĤ": 136279,
  "Ġhops": 58118,
  "ÑĢÐ¾Ð¼": 125814,
  "Ġvariations": 26244,
  "Ġ×ľ×Ļ×ŀ×ķ×ĵ×Ļ": 137480,
  "ĠìĤ´": 127166,
  "ĠmigrationBuilder": 16955,
  ".WebElement": 89792,
  "ĠUnicorn": 94970,
  "ĠThÆ°Æ¡ng": 137048,
  "ĠPersistent": 66544,
  "ĠPreserve": 81306,
  ".LinearLayoutManager": 60128,
  "ĠPet": 11333,
  "%H": 76831,
  "ether": 2723,
  "ĠCory": 63528,
  "ĠViewBag": 27044,
  "ðĿĳ¥": 146156,
  "ãĥ¤": 126454,
  "ä¸įä»£è¡¨": 108259,
  ".getValue": 11901,
  "ç¹ĩ": 121915,
  "ustralia": 28039,
  "$rs": 69190,
  "Transition": 21768,
  "ä¿Ŀåģ¥": 102756,
  "ä»£çĲĨ": 101259,
  "ð¬ĩ¹": 122882,
  "categorie": 86695,
  "à¤¸": 78368,
  "å¤«": 99818,
  "à¸ģà¸¥à¸¸à¹Īà¸¡": 129184,
  "Ġundecided": 93455,
  "Know": 38412,
  "éĢļçŁ¥ä¹¦": 111659,
  "ä¸įå±ĳ": 115205,
  "èĬ¾": 119663,
  "Ð´ÑĥÐ¼": 128166,
  "Ġsoir": 56892,
  "å´Ħ": 122640,
  "dhcp": 96220,
  "<pre": 10120,
  "rish": 93907,
  "Gateway": 40709,
  "ãģĦãģıãĤī": 139012,
  "æ½½": 123494,
  "Ġ'{}'": 69422,
  "åıŁ": 120158,
  "èĲ¹": 122970,
  "Ġabuses": 49062,
  "ĠPeoples": 80298,
  "Ġ×Ĳ×Ļ×ł×Ķ": 133183,
  "$fields": 77092,
  "_accounts": 55665,
  "_rng": 66849,
  "ĠÑĢÐµÐ±ÐµÐ½": 135822,
  "=models": 27410,
  "Õĳ": 150228,
  "Ġregion": 5537,
  "Ġasm": 32828,
  "ARB": 49064,
  "Ġsuis": 35631,
  "kes": 12556,
  "hen": 12032,
  "xx": 4146,
  "äº«åıĹåĪ°": 110972,
  "æīĭèīº": 112185,
  "çŃĶãģĪ": 136885,
  "æĦıè§ģ": 100065,
  "æ£¬": 122981,
  "Ġ[%": 23610,
  "Modern": 48452,
  "Ġlavor": 45055,
  "](Ċ": 95024,
  "ĠExpense": 67531,
  "ç¦ĭ": 123269,
  "ĉjava": 56171,
  "_jump": 65436,
  "ĠSTDOUT": 87907,
  "-repeat": 33743,
  "eda": 13830,
  "-social": 42029,
  ".conv": 25961,
  "Ġmigli": 44479,
  "_KEEP": 74937,
  "Ġkvinder": 41425,
  ".Component": 5119,
  "AsString": 26582,
  "/filter": 63524,
  "eee": 34063,
  "æľīäººè¯´": 107763,
  "Ġflew": 31022,
  "Ġgangbang": 40754,
  "ĉĠĠĠĠĠĠĠĠĠ": 31670,
  "Ġremot": 35793,
  "ĠAshton": 86618,
  "å¡¬": 121103,
  "ĠTerminal": 34090,
  "ourd": 76392,
  "ĠafterEach": 73491,
  "åłª": 101674,
  "ĠMotors": 36692,
  "+a": 56839,
  "tridge": 36877,
  "itled": 15263,
  "ĠHurricanes": 88503,
  "ĠParam": 6991,
  "ruta": 80907,
  "umes": 18618,
  "'])čĊ": 39573,
  "Ġerfolgre": 73796,
  "ucha": 54381,
  "æµ¡": 122696,
  "æ¯Ľå·¾": 111869,
  "ç´łæķµãģª": 142624,
  ".servlet": 10992,
  ".AP": 29837,
  "Ġsustainable": 21803,
  "ðŁĲĥ": 149359,
  "Ġdeselect": 97956,
  "à¹Ģà¸Ķà¸´à¸¡à¸ŀà¸±à¸Ļ": 136714,
  "ĠLeague": 8953,
  "éļ¶": 101023,
  "ĠÃ¦": 65013,
  "ä¸ĭéĿ¢æĺ¯": 112918,
  "Ġ×ŀ": 91511,
  ".Deep": 55602,
  "ĠDevelopers": 46617,
  "Ġbeh": 2755,
  "åıĮçľ¼": 110632,
  "When": 4498,
  "Ġ,čĊ": 55819,
  "nivers": 127515,
  "airs": 4720,
  "æ»ĭçĶŁ": 116017,
  ".Double": 36113,
  "â¬ľ": 148442,
  "ĉrm": 70945,
  "GREEN": 55954,
  "Ġcognitive": 24675,
  "á¶ĩ": 150588,
  ".UserService": 79070,
  "á´Ĭ": 149595,
  "Ġcolomb": 74224,
  "ç©°": 122101,
  "ĠDing": 79373,
  "Units": 26314,
  "åħ¬åħ±äº¤éĢļ": 114450,
  "/detail": 40823,
  "/cpp": 88201,
  "INATION": 51860,
  "_Reset": 67771,
  "Ġturbine": 65170,
  "Ġbetrayal": 67276,
  "èĬı": 122150,
  "ï¿¨": 148687,
  "ç©ºåīį": 116068,
  "Ġsildenafil": 91801,
  "clar": 12821,
  "ott": 1716,
  "monary": 54792,
  "#ĊĊ": 26487,
  "ĠRental": 39198,
  "(Qt": 22224,
  "inger": 5137,
  "pNet": 49929,
  "Ġerotici": 39472,
  "ãĥ»ãĥ»": 16063,
  "ĠgetApp": 76382,
  ".ad": 11640,
  ".tick": 40323,
  "_usage": 31507,
  "Ġskies": 49293,
  "ĠscreenWidth": 70370,
  ".articles": 88755,
  "acterial": 69934,
  "ï·¼": 146952,
  "WHITE": 56999,
  "Ġregain": 48555,
  "èĩº": 101751,
  "Git": 46562,
  "ä¾Ĩèĩª": 114107,
  "Ġ...,": 60353,
  "ìīł": 148850,
  "-Israel": 70990,
  "colo": 58248,
  "launcher": 77191,
  ".emf": 37063,
  "Ġwhole": 4361,
  "ĠDet": 16423,
  "Ġdraws": 26643,
  "ðŁĺĻ": 145845,
  "ç¡«": 103437,
  "Ġting": 42227,
  "_strerror": 81444,
  "_FIRST": 36272,
  "asis": 10718,
  "ĠJahr": 37419,
  "ĠArticle": 13355,
  "è¡ĢèĦī": 116325,
  "Given": 22043,
  "íĪ¶": 149800,
  "ndon": 85352,
  "Ġjig": 94064,
  ".toFloat": 80098,
  "äĲĢ": 150805,
  "ĠBread": 49041,
  "èĲĮ": 105297,
  "ĠExxon": 76027,
  "ãģķãĤĮãĤĭãģĵãģ¨": 141179,
  "variables": 18616,
  "Ġmisled": 98425,
  "Ġaccurate": 13382,
  "ĠRef": 8550,
  "Ġsubtly": 86317,
  ".state": 3467,
  "ĠRubio": 43914,
  "Ġoverflowing": 93215,
  "Ġable": 2952,
  "Ġreads": 15804,
  "âĨĺ": 145926,
  "-lfs": 70162,
  "Ġhabe": 27726,
  "ðŁĮķ": 147917,
  "ĠAtlas": 42343,
  "ĠGoa": 85522,
  "ĠfontFamily": 29135,
  "ïŃ¹": 151174,
  "ĠHISTORY": 61779,
  "Ġhaz": 20144,
  "ç¬¬ä¸īå±Ĭ": 110489,
  "ethylene": 87540,
  "ificar": 23244,
  "é¦Ļæ¸¯": 101926,
  "fav": 80864,
  "endant": 20372,
  "-approved": 66262,
  "Ġgenu": 16497,
  "ä¸įåıĺ": 105928,
  "ĠBrett": 39103,
  "ï¼ŁâĢĿ": 81264,
  "Tabs": 36985,
  "ownership": 78147,
  "Ñ¼": 147288,
  "ä¸¾æĬ¥": 102211,
  "landÄ±": 131181,
  "Ġmuchas": 63459,
  "Ġmarch": 15217,
  "activity": 7175,
  "é²ħ": 121258,
  "ĠClient": 8423,
  "à¸Ńà¸¢à¹Īà¸²à¸ĩà¹Ħà¸£": 126982,
  "éĩįæ¸©": 118649,
  "actively": 63019,
  "aincontri": 74472,
  "ðŁİª": 149181,
  "ĠÙĬØ¬Ø¹ÙĦ": 137204,
  "ĠRoads": 79253,
  "ĠDow": 42432,
  "cab": 54793,
  "doors": 27304,
  "_sl": 11886,
  "Ġ?\";Ċ": 64253,
  "/S": 11374,
  "æŃ·": 101794,
  "ÐµÐ¶": 49336,
  "æ²ģ": 110420,
  "Ġnote": 5185,
  ".vector": 47103,
  "Ġsite": 2747,
  "(factor": 95299,
  "-selector": 76127,
  "ĠLAST": 47295,
  "à¸Ļà¸²à¸Ļ": 129266,
  "åĹ¥": 121206,
  "æĺİçıł": 109128,
  "XA": 59450,
  "çĶĺèĤĥ": 102726,
  "_application": 38721,
  ".\"},Ċ": 92181,
  "ĠØ£Ø¨ÙĪ": 130261,
  "_PERIOD": 43166,
  "*/čĊčĊ": 28570,
  "ä¼ĺçĤ¹": 103134,
  "×ĳ×Ĺ×¨": 129930,
  "Ġmanifest": 14455,
  "Ġthin": 15430,
  "ãģ¦ãģĦãģ¾ãģĻ": 125558,
  "Ġinvented": 35492,
  "Conf": 15578,
  "ifiable": 22619,
  "ĠJerome": 69774,
  "ĠAnti": 22992,
  "Ġsystemic": 45317,
  "ĠSaint": 14205,
  "(Math": 14426,
  "Ø¬ÙħÙĩÙĪØ±ÙĬØ©": 135463,
  "Ġuniforms": 44133,
  "åį·": 100199,
  "Ġcrypto": 19028,
  "eday": 45112,
  "-em": 36512,
  "incl": 91157,
  "emin": 25684,
  "ĠFeinstein": 84789,
  "<<<<<<<<": 82128,
  "Ġaccelerating": 68641,
  "inject": 32133,
  "(view": 12047,
  "ĠTu": 28649,
  "ä»İèĢĮä½¿": 113393,
  "ĠwÅĤaÅĽnie": 131489,
  "Ġà¸Ĺà¸³à¹ĥà¸«à¹ī": 130659,
  "çºŃ": 119786,
  "leader": 37391,
  "åĸľçĪ±": 102721,
  "ĠÐµÐ´Ð¸Ð½ÑģÑĤÐ²": 141427,
  "ä»įæĹ§": 111954,
  "_First": 79790,
  "ëĢľ": 146319,
  "XR": 52821,
  "Publication": 72390,
  "Ġrespondent": 66888,
  "ï½®": 144889,
  "ĠEmergency": 31608,
  "vertis": 10218,
  "ĠjÄĻzyk": 132938,
  "Attached": 65987,
  "èĩĢ": 117318,
  "ëĶ®": 150905,
  "quisites": 48250,
  "é¢Ĩå¯¼äºº": 107672,
  "ØŃØ±Ùħ": 139668,
  "æĪĺèĥľ": 106561,
  "Ġpatriarch": 70221,
  "Ġuno": 23895,
  "Ph": 3357,
  "ĠTe": 2655,
  "ĠstatusBar": 90120,
  "äºķ": 104097,
  "_since": 56262,
  "=?\",": 87873,
  "âķŁ": 150133,
  "istem": 66421,
  "ĠÑĦÐ¾ÑĢÐ¼Ñĭ": 141092,
  "ENTIAL": 21904,
  "Ġformula": 14806,
  "Ġnationalists": 87380,
  "ÐµÐ½Ð½": 125315,
  "Ġaccomplishment": 60138,
  "ï²¨": 148138,
  "Ġanti": 7147,
  "ĠdÄ±ÅŁÄ±nda": 133221,
  "Ġdesign": 2884,
  "olut": 9041,
  "ä¿ĿèŃ·": 102915,
  ".credentials": 74754,
  "_motor": 59789,
  "Fact": 17417,
  "Ġtips": 10414,
  "Ġtemp": 2730,
  "×ľ×ľ": 134589,
  "Ġmeilleure": 93621,
  "ĠKop": 58009,
  "ĠØ§ÙĦÙħØ¯ÙĬÙĨØ©": 132879,
  "rors": 31686,
  "locks": 34936,
  "å¸Ĳ": 101686,
  "Ltd": 94386,
  "ëį¸": 142713,
  "×Ľ×ķ×ľ×Ŀ": 130115,
  "æĬ¥åĪĬ": 114878,
  "(logging": 51687,
  "ĉ": 197,
  "(utf": 85277,
  "brane": 87454,
  "Med": 13310,
  "çĶ¨å¾®ä¿¡æī«": 117170,
  "ĠRochester": 52368,
  "Ġtraditional": 8606,
  "beiten": 50656,
  ")\\Ċ": 62555,
  "ULATE": 79223,
  "×ł×ĸ×§": 133009,
  "á»¥c": 92704,
  "åħ¨åŁŁ": 103756,
  "ĊĉĉĉĉĊ": 73427,
  "èĥĸ": 101484,
  "çĬģ": 117301,
  "redi": 64599,
  "Ġdevised": 68020,
  "ĠLei": 72210,
  "mage": 52310,
  "Ġra": 15122,
  "atype": 20157,
  "ĠBuccane": 85770,
  "ĠSil": 8051,
  "åĴĭ": 108806,
  "×Ĺ×ķ×ķ": 137751,
  "eyJ": 84609,
  "å®ĺåĳĺ": 105404,
  "eea": 84408,
  "ĠÑĩÐµÑĢÐµÐ·": 129334,
  ")(__": 74699,
  "Ġexposition": 90418,
  "Ġrating": 10728,
  "é¹Ĭ": 118643,
  "ĠUILabel": 16238,
  "æĪĲéķ¿ä¸º": 114050,
  "leasing": 83552,
  ".btnClose": 76302,
  "Ġdeducted": 95504,
  "sizes": 53155,
  "inen": 16676,
  ">()Ċ": 18949,
  "ðŁĵ©": 146375,
  "ãģĿãĤĮãģ§ãĤĤ": 137185,
  "Ġawk": 19976,
  "ĠÐ¿Ð¾ÑģÐº": 138727,
  "Ġmilk": 14074,
  "Ġenterprise": 20179,
  "ĠMSC": 83513,
  "raphic": 78073,
  "ĠGuerrero": 97736,
  "}.": 7810,
  "è¿ĩåī©": 115291,
  "_ready": 35456,
  "Ð½Ð´ÐµÐºÑģ": 139955,
  "Ġvinyl": 33449,
  "å¸¸åĬ¡": 109294,
  "_consum": 69870,
  "ĠÐ¶Ðµ": 128346,
  ".bindingNavigatorMove": 80225,
  "ĠaslÄ±": 138714,
  "å¼ĥ": 100101,
  "Ctrl": 15001,
  "Pokemon": 60089,
  "æŁ¯": 105264,
  ".RES": 92252,
  "([],": 40056,
  "Ġpistols": 83647,
  "×ĳ×ľ×Ķ": 133062,
  "çĶ¨å¿ĥ": 105952,
  "disposing": 19286,
  "Ġvibration": 47813,
  "ĠchÃ¢n": 129213,
  "à¤ħ": 146378,
  "~Ċ": 88141,
  "ĠICMP": 83988,
  "_lt": 39164,
  "ĠAGRE": 75490,
  "omers": 68538,
  "Ġhizo": 85183,
  "ĠCotton": 37696,
  "Ġscrapped": 83247,
  "Ġcoastline": 79844,
  "ĠÙģÙĤØ¯": 129828,
  "ãĤ¸ãĤ§": 127181,
  "Ġger": 17239,
  "Ġadversary": 81399,
  "(filtered": 86021,
  "leaders": 78386,
  "ĠÑĤÐ¾Ð³Ð¾": 128798,
  "Ġsell": 4559,
  "åĲĸ": 122158,
  "ä¹ŁéĿŀå¸¸": 109086,
  "à¹Ģà¸Ķà¸Ńà¸°": 141267,
  "ä¸»ä¹īèĢħ": 117869,
  "alerts": 91133,
  "åĲĦè¡ĮåĲĦ": 115180,
  "quote": 2949,
  "ĠAst": 20113,
  "(bundle": 54201,
  "è¾¾åĪ°": 100366,
  "à¹Ģà¸ģà¸©": 133808,
  "-labelledby": 32127,
  "_Q": 13337,
  "ðŁĮ¦": 148385,
  "çħ§å°Ħ": 113788,
  "ĠpÃ¡": 64745,
  "unicode": 24519,
  "ëľ°": 144940,
  "ĠGCBO": 82746,
  "ĠHayden": 76185,
  "ðªŁĿ": 122569,
  "_drive": 67151,
  "anc": 1129,
  "Ġatmosphere": 16566,
  ".Service": 13860,
  "eker": 51216,
  "ĠScor": 79335,
  "Ġurg": 60839,
  "_plane": 46023,
  "emu": 33063,
  "íĥ¯": 146128,
  "liste": 64646,
  "Ġjov": 67261,
  "ĠBrittany": 88154,
  "Ġmoden": 99147,
  "ëĿĮ": 146428,
  "Ġ));ĊĊ": 33351,
  "ĠgetResources": 58145,
  "refund": 68483,
  "ylim": 47798,
  "Ë®": 146572,
  "Ġplanned": 12909,
  ".std": 13091,
  "Ġdisb": 93444,
  "Ġheartfelt": 83111,
  "×ĳ×¢": 124153,
  "Ġconstr": 18941,
  "ÐºÐ»Ðµ": 135154,
  "íķ´ìĦľ": 96137,
  "Å¯": 51253,
  "Ġsáºµn": 133691,
  "Ġinc": 3625,
  "Ġmarc": 59798,
  "_voltage": 62756,
  "ä¹Łè¢«": 107036,
  ">>>": 20154,
  "ssize": 77460,
  "ï¬ł": 147113,
  "ĠãĢĮ": 44531,
  "(()": 5065,
  ".beans": 14196,
  "Vars": 28305,
  "æŃ£æĸĩ": 110644,
  "åľ¨å¤ĸ": 107435,
  "Ġfflush": 52686,
  "çļĦèī¯å¥½": 108672,
  "ĠPreferred": 62503,
  "Ġprophets": 71668,
  "ĠGuatemala": 61978,
  "Ġrefriger": 29377,
  "classified": 64874,
  "ç·£": 112134,
  "]\").": 44891,
  "æĶ¿æĿĥ": 110394,
  "Ð¶": 16964,
  "å®ĺæĸ¹å¾®åįļ": 114757,
  "Ġsnork": 96706,
  "ĠAssad": 37516,
  "âĽ§": 148618,
  "ĠÐ²ÐµÑģÑĮÐ¼Ð°": 143021,
  "ãĥıãĥ³": 135169,
  "[item": 28318,
  "åĩºåı°": 102331,
  "Ġtext": 1467,
  "ðĵı§": 151619,
  "ĠFOR": 4613,
  "ãĤ¤ãĥĻãĥ³ãĥĪ": 132080,
  "amate": 91066,
  "×ł×Ļ×ķ×ĸ×ľ×ĺ×¨": 142495,
  "bef": 57647,
  "Ġdaar": 59347,
  "merc": 64422,
  "ĠHttpStatusCode": 49339,
  "Ġ(ĊĊ": 52054,
  "à¹Ģà¸Ńà¸ģà¸ªà¸²à¸£": 138951,
  "èİ·å¾ĹæĦŁ": 113922,
  "ĠCosmic": 94689,
  "Ġslid": 59914,
  "Ġrg": 18361,
  "_art": 36932,
  ".JWT": 99073,
  "ãĥĳãĥ¼ãĥĪ": 138525,
  ".Wait": 28384,
  "ĠYÃªn": 138902,
  "_dark": 67937,
  ".Surface": 80974,
  "_POST": 20506,
  "à¸Ħà¸§à¸ļà¸Ħà¸¸à¸¡": 133815,
  "Ġ,$": 86794,
  "ĠUserID": 68567,
  "ĠAAA": 47097,
  "ĠcellFor": 40604,
  "Ġ['#": 90084,
  "ĠTrials": 69444,
  "iction": 2479,
  "Ó¯": 147321,
  "Ġcold": 9255,
  "ĠIce": 19939,
  "ĠĠĠĠĠĠĠĠĠĠĠĠĉĉ": 69562,
  "äº¬åī§": 115957,
  "Ġfunction": 729,
  "Ġbackups": 59666,
  "æ§ł": 121388,
  "ertainty": 80146,
  "ìĭ²": 151441,
  "ç¾İåªĴ": 118088,
  "ĠRemove": 10783,
  "ĠDetails": 12309,
  "{{$": 29283,
  "ActionResult": 17301,
  "Ġrebell": 41201,
  "âĬ¶": 149032,
  "_CFG": 21760,
  "Ġtot": 2401,
  "Å¼eli": 127884,
  "ä¹Łä¸į": 99744,
  "ĠWings": 45097,
  "Ġcommodities": 50867,
  "ðĿĹĽ": 148445,
  ".setUp": 77700,
  "andler": 5252,
  "Ġcyst": 62481,
  "Ġplight": 69975,
  "Ġgyr": 79505,
  "};Ċ": 2440,
  "Coord": 19437,
  "_AVAILABLE": 51823,
  "\\Cache": 84856,
  "Star": 12699,
  "åħ±éĿĴ": 113582,
  "/terms": 96763,
  "ä¸įéĹ´æĸŃ": 117831,
  "ä¸ĸä¸Ĭ": 110759,
  "brightness": 99056,
  "ÑĥÑİ": 33048,
  "Ġ>/": 61359,
  "à¸ŀà¸¤à¸ķà¸´": 143649,
  "±ħ": 127964,
  "ĠResourceType": 97801,
  ".Columns": 15165,
  "ì¿³": 148084,
  "åĸĢ": 110747,
  "/pol": 92750,
  "devices": 46966,
  "Ġ×ŀ×ª×Ĺ×Ļ×ľ": 133635,
  ".Some": 86833,
  "ALER": 88378,
  "çŃīåĲĦç§į": 113464,
  "Ġtidak": 27281,
  "./": 1725,
  "å½ĵä½ľ": 108804,
  "ĠÃľrÃ¼n": 140046,
  "ìķĦë²Ħì§Ģ": 142520,
  "ĠØ§ÙĦÙħØ³ØªÙĪÙī": 139148,
  "orious": 21995,
  "destruct": 60268,
  "Ġdedicated": 12235,
  "Ġdok": 41061,
  "Ġwaits": 46936,
  "ÑģÐµÐ½": 132825,
  "Kin": 67127,
  "ĠGLsizei": 79703,
  "Ġoltre": 91102,
  "_priv": 24726,
  "charger": 41456,
  "ĠCÃ¡c": 128678,
  "Ġsynthesized": 91006,
  "Îº": 67337,
  "ĠJeb": 70096,
  "ãĤ¢ãĥĹãĥª": 130240,
  "`\\": 61069,
  "($('.": 71210,
  "owy": 36875,
  "éĵ¯": 120703,
  "-categories": 95099,
  ".organ": 50172,
  "oins": 68798,
  ".Serializable": 23713,
  "ç½¡": 120389,
  "ĠÑĥÑĩÐ°ÑģÑĤÐ½Ð¸Ðº": 134389,
  "_SITE": 60544,
  "Ġ×Ĳ×¦×ľ": 126820,
  "ä¸Ģç¯ĩæĸĩç«ł": 116562,
  "_Index": 50361,
  "rejected": 95353,
  "æ¯½": 120971,
  "Ð±Ð°": 128940,
  "ĠMaison": 87883,
  "ĠCalcul": 31359,
  "æľĢçĪ±": 110052,
  "ðŁĶĥ": 151402,
  "åĻ¨": 31548,
  "objc": 28826,
  "(panel": 49542,
  "IRD": 45180,
  "ĠJFrame": 50363,
  "ungkin": 97934,
  "åħ»èĢģæľįåĬ¡": 112732,
  "×Ļ×¦×ķ×¨": 127251,
  "ĠÄĳÃ¡": 129411,
  "×ł×¦×Ļ×Ĵ": 138576,
  "Ġmortar": 57460,
  "æĶ¾åľ¨": 104132,
  "Reducers": 47164,
  "iÄŁi": 127625,
  "ĠPeru": 47747,
  "çļĦçĽ¸åħ³": 106730,
  "Ġporta": 60990,
  "$content": 43563,
  "_BRANCH": 71746,
  "ĠRestoration": 66825,
  "ãĤ½ãĥ³": 135908,
  "×©×Ļ×ł×ķ×Ļ": 130701,
  "Ġagreed": 7230,
  "êĴ±": 146916,
  "picture": 26483,
  "_version": 9438,
  "imson": 45445,
  "endforeach": 22095,
  "Ġcarrera": 89876,
  "'].\"": 16258,
  "Ġequipo": 47912,
  "à¹Ģà¸ªà¸·à¹īà¸Ń": 127665,
  "Ġbout": 24623,
  "svn": 63589,
  "Ġshadow": 12455,
  "è®¢éĺħ": 108959,
  "nÄħÄĩ": 131264,
  "clf": 69126,
  "Supplier": 46167,
  "ĉĉĠĠĠĠĠ": 21497,
  "Ġbuyers": 22630,
  "ĠÑģÑĤÐ°Ð»Ð°": 140325,
  "åĥ³": 121462,
  "ĠĠĠĠĠĠĠĠĠĠĠĠĠĠĠĠĠĠĠĠĊ": 10683,
  "ä¸įæŃ»": 112261,
  ".JsonIgnore": 95633,
  "Ġê°Ĳ": 129423,
  "ä¹ĸ": 101842,
  "è¾ĵåħ¥": 31196,
  "Ġcháº¯n": 132457,
  "_correct": 31550,
  "_rho": 79160,
  "ĉDescription": 47414,
  "US": 2034,
  "Ġsign": 1841,
  "ãģĵãĤĵãģ«ãģ¡ãģ¯": 89015,
  "Ġcripp": 70008,
  "-too": 93579,
  "ĠOilers": 89227,
  "Ġtokens": 11211,
  "æĸ°åĨłçĹħæ¯Ĵ": 113194,
  "ĠClasses": 33869,
  "Ġstove": 44015,
  "å¹": 7045,
  "ĠLunch": 55599,
  "ĠMANUAL": 92423,
  "Ġmeiden": 83577,
  "Ġpersona": 27955,
  "*np": 39005,
  "Ġauthorities": 11276,
  "ĠaÃ§Ä±kl": 130165,
  "zb": 25329,
  "Ġua": 45559,
  "à¸Ńà¸¢à¸²à¸ģà¹ĥà¸«à¹ī": 140835,
  "ĠFEC": 92311,
  "_AdjustorThunk": 42901,
  "uing": 7471,
  "Ġá": 86089,
  "ç°ĸ": 121906,
  "Ġ×Ķ×Ĳ×ŀ×Ļ×ª×Ļ": 142599,
  "èĶ«": 121364,
  "çī¹æ´¾åĳĺ": 115225,
  "unless": 38770,
  "ĠNotImplementedError": 38199,
  "Ø³Ø§Ø·": 139917,
  "Ġautonom": 94003,
  "ĠJakarta": 63033,
  "_HOUR": 86292,
  "èįī": 99808,
  "plist": 39934,
  "urma": 86579,
  ",&": 11875,
  "ĠÑĢÐ°Ð·Ð²Ð¸ÑĤÐ¸Ðµ": 139853,
  "orry": 8468,
  "ĠVocal": 97303,
  "ĠQuickly": 96817,
  "=context": 70694,
  "_multi": 25133,
  "ĠSass": 84862,
  "ĠØ§ÙĦØµÙĬÙĨ": 132781,
  "ĠnumberOf": 17512,
  "Ġplaint": 23372,
  "å¥¥": 99687,
  "ivative": 47158,
  "qua": 43832,
  "æŃ£ç¡®": 88991,
  "cxx": 89073,
  "_NUM": 9631,
  "áĦĢ": 146312,
  "Ġ-------------------------------------------------------------------------Ċ": 80550,
  "ITEM": 11969,
  "ä¼ļè®®": 99903,
  "à¸¥à¸³": 130727,
  "Ø¨Ø´": 135237,
  "Ġlymph": 42645,
  "igators": 64983,
  "ä¹Ķ": 101384,
  "ÙĨØ³": 124829,
  "ĠhÃ¶chst": 141964,
  "vil": 45252,
  "×Ĳ×ł×©×Ļ": 132530,
  "Ġopin": 7334,
  "Ġpayday": 52606,
  "Ġunconscious": 39611,
  "_Start": 38056,
  "Ġlogging": 8392,
  "Ġ/************************************************************************": 97005,
  "Ġvice": 16774,
  "culo": 63387,
  "Handlers": 39949,
  "Ġvan": 5242,
  "æĬ»": 119803,
  "ĠIMapper": 90499,
  "ĠMaple": 43470,
  "ĠÐ´Ð¾Ð±Ð°Ð²": 58269,
  ".This": 28745,
  "Ġconfisc": 56356,
  "ëĭ¤ê°Ģ": 135448,
  "Ø¨Øº": 133721,
  "ĠDispose": 16469,
  "win": 7526,
  "Ġarmed": 17445,
  "spawn": 46087,
  "<": 27,
  "Ġboo": 46270,
  "Ġley": 60415,
  "Ġstri": 5950,
  "..ĊĊ": 15514,
  "âľĲ": 146370,
  "dÃ£o": 133150,
  "ðŁĻĮ": 144994,
  "è¡Ľ": 111644,
  "Ġjohn": 39642,
  "Ġcheckbox": 31300,
  "è¾©": 100602,
  "æ¢§": 119208,
  "Ġinevitable": 30252,
  "ĠsubTitle": 91910,
  "Ġagitation": 90217,
  "(typ": 66783,
  "_PIN": 15844,
  "fÃ¤llig": 143156,
  "Month": 11318,
  "Ġsentimental": 91938,
  "ardown": 37496,
  "Ġmuss": 35141,
  "ĠTitan": 27447,
  "_vk": 89852,
  "(PR": 71566,
  "ĠnÃłng": 130453,
  "ĠStanley": 30452,
  "meta": 5490,
  "ĠDit": 52418,
  "Ir": 48113,
  "ĠHAVE": 18590,
  "åħ¬åŃĲ": 106292,
  "ì±Į": 145313,
  "ãģĹãģŁ": 54951,
  "Path": 1820,
  "ĠHashMap": 10528,
  "ĉad": 98780,
  "Ġ!!": 11015,
  "çļĦéģĵçĲĨ": 111994,
  "stub": 59398,
  "Iraq": 96718,
  "åĦ²": 117840,
  "Ġseminars": 67469,
  "sponsor": 95811,
  "ëĤĻ": 144006,
  "Ġ])": 41573,
  "Ġdegrade": 95530,
  "ĠUNIVERSITY": 81273,
  "ĠSaga": 61712,
  "è§£å¼Ģ": 117647,
  "Ġgear": 14448,
  "TERS": 84167,
  "Ġsnatch": 84560,
  "å¾ĢæĿ¥": 109715,
  "vf": 45241,
  "regs": 30886,
  "âĵĳ": 146910,
  "ç®¡å§Ķä¼ļ": 103614,
  "æ¡·": 120610,
  "ä»ĸæĺ¯": 104878,
  "ktion": 39470,
  "Johnson": 62660,
  "çº¿è·¯": 104634,
  "Ġwalking": 11435,
  "_hour": 32292,
  "ĠDancing": 69529,
  "å¯¹åħ¬åı¸": 109168,
  "Ġprofesional": 75248,
  "Cl": 5066,
  "Ġadec": 86718,
  "Ð´ÐµÑģÑıÑĤ": 134705,
  ">Email": 50531,
  "âĶľ": 144663,
  "Ġ-------": 60158,
  "Ġrebuild": 31493,
  "ØĮ": 68785,
  "æĸ°è§Ħ": 114498,
  "íĮħ": 138694,
  "/library": 45446,
  "ĠPvt": 60675,
  "ðŁı½": 145375,
  "_rom": 81383,
  "loh": 82348,
  "çķĻåŃĺ": 114762,
  "Ġhern": 71809,
  "\"strings": 39744,
  "_geom": 72987,
  "/png": 35960,
  "é»ĳé¾Ļæ±Ł": 102951,
  "StoryboardSegue": 49369,
  "èĮ": 90894,
  "ĠSÃ£o": 47690,
  "èĲį": 106220,
  "iding": 6577,
  "-details": 30433,
  "ĠÑĢÑıÐ´Ð¾Ð¼": 140284,
  "à¸¢à¸§": 125293,
  "Mesh": 14194,
  ".ny": 82814,
  "ä½Ĩæĺ¯å¦Ĥæŀľ": 114201,
  "Ġopposes": 75212,
  "çªĺ": 119444,
  "Ġhair": 6869,
  "Ġkhá»ıe": 129700,
  "×¡×ľ": 128896,
  "åįĹæµ·": 102903,
  ".IntPtr": 67630,
  "Ã²n": 125437,
  "æ°Ĺãģ«ãģªãĤĭ": 134000,
  "ĠcreateUser": 60754,
  "ĠDota": 85127,
  "ÙĤÙĬØ§Ùħ": 127802,
  "ĠFLAC": 89099,
  "_BAND": 78268,
  "Ġmythology": 58392,
  "Ġcursor": 8128,
  "ĠTechnique": 77619,
  "ĠOrganic": 42937,
  "Create": 4021,
  "åĽŀå¤į": 104787,
  "ĠAssembly": 11738,
  "email": 2332,
  "Stride": 64169,
  "ä¸Ģåº¦": 102738,
  "ĠReceive": 37422,
  "Ø§Ø®": 126597,
  "$GLOBALS": 46765,
  "ĠYYYY": 60591,
  "_Def": 88411,
  "Ġchauff": 73717,
  "åı¯ä»¥æĽ´å¥½": 117443,
  "åĽŀä¾Ĩ": 115030,
  "æ¸©æļĸ": 104607,
  "ãĤ¶": 125765,
  "ĠSche": 53672,
  "à¸Ķà¸²à¸£": 141575,
  "osed": 19586,
  "ĠDoug": 31508,
  "ìĭŃìĭľ": 139712,
  "_Version": 85217,
  "ĠAnything": 40933,
  "ĠØ§ÙĦÙĪØŃÙĬØ¯": 140426,
  "Ð¿ÑĢÐ¾Ñģ": 129138,
  "kiem": 87150,
  "´Ī": 63046,
  "Ġarthritis": 54552,
  "SHA": 33145,
  "xC": 12125,
  "Ġfund": 3802,
  "è¼©": 116599,
  ".TryParse": 33318,
  "ĠLeben": 55397,
  "ð¬Ģ": 103901,
  "Ġnour": 45698,
  "ĠÙħØ¤": 133427,
  ".Br": 55425,
  "KE": 3390,
  "Href": 64919,
  "oseconds": 75889,
  "ĠðŁĳ": 61804,
  "ĠRaised": 53731,
  "è§ĨåĲ¬": 103710,
  "Ġcollaborated": 77074,
  "Ġ`/": 37301,
  "Ġcoz": 84820,
  "ĠKok": 64715,
  "Ġmagna": 58917,
  "Ġthriving": 52314,
  "Income": 58898,
  "è²Ŀ": 115622,
  "Ġrefund": 20965,
  "Ġdivider": 48695,
  "ĠHá»ĩ": 138907,
  "Ġpan": 7215,
  "áº³ng": 124935,
  "ĠBorder": 13992,
  "ĠKirk": 31346,
  "è°«": 123273,
  "æ³°åĽ½": 105906,
  "Ġnanop": 75207,
  "LÄ°": 132217,
  "ammers": 42057,
  "Ġparti": 78888,
  "êĿ¥": 150828,
  "ĠKilled": 43796,
  "ðŁį²": 147310,
  "Ġ×Ķ×Ľ×ķ×ľ×ľ": 139613,
  "Ġcialis": 27793,
  "Tek": 55715,
  "epad": 69541,
  "é¢ĦèŃ¦": 106338,
  "Ġcondo": 43100,
  "ĠPharmacy": 47075,
  ".screen": 25375,
  "âĶĥ": 145038,
  "ASHINGTON": 43237,
  "ĠGee": 95597,
  "ä½ĵåŀĭ": 116839,
  "ĠTorrent": 63786,
  "/sw": 42934,
  "Ġbehaved": 88731,
  "ÐµÑĤÐµÑģÑĮ": 143550,
  "å¿ĥæĦı": 113961,
  "Ð¾Ð±ÑħÐ¾Ð´Ð¸Ð¼": 88059,
  "_proc": 24436,
  "asan": 45388,
  "olÃ³g": 60094,
  "tensor": 46111,
  "ĠokreÅĽ": 138167,
  "ĠSync": 28937,
  "×Ĺ×ľ×ª": 139292,
  "codegen": 95859,
  "*p": 31168,
  "VMLINUX": 49511,
  "=\"/\"": 44609,
  "_PASS": 34351,
  "erging": 95296,
  "elige": 95946,
  "ĠWorkbook": 83462,
  "ÑĢÐ¾Ð±": 126083,
  "WiÄĻcej": 138437,
  "ÙĬØ¦Ø©": 126931,
  "åŀĤ": 102566,
  ".Fatalf": 30762,
  "Ġ×Ĺ×ľ×ķ": 136397,
  "Ġthen": 1221,
  "ĠAnthem": 89132,
  "ĠJust": 4599,
  "-cmpr": 97971,
  "å¨ľ": 102227,
  "íİł": 144807,
  "orian": 22090,
  "Ġclicked": 19910,
  "ÙĪØ§Ø³": 134087,
  "Ġitems": 3589,
  "Ġpeux": 93197,
  "Ø±ÙĬØ§": 132053,
  "Ġpropiedad": 87623,
  "-business": 64013,
  ".Ultra": 53223,
  "_INC": 39901,
  "Understanding": 70151,
  "æĴº": 121557,
  "Ġrouter": 9273,
  "å®¢": 64754,
  "ĠGranite": 64494,
  "PIN": 56061,
  "atum": 26253,
  "oons": 28539,
  "ĉput": 45062,
  "ç®ĢçĽ´": 101605,
  "Ġriver": 14796,
  "/board": 97430,
  "]\")Ċ": 47915,
  "ĠØ´ÙĥØ±Ø§": 143623,
  "ðŁħ": 123969,
  "èĻļæĭŁ": 106225,
  "âīª": 144311,
  "æįĲèµł": 106120,
  "ĠplayerId": 75961,
  "ĠDiese": 54068,
  "Ġsue": 33772,
  "Ġplaintiff": 42002,
  "Ø·ÙĪ": 131631,
  "Ġnumel": 76211,
  "_Level": 78861,
  ")throws": 86459,
  "IW": 81296,
  "ä¹°äºĨ": 105275,
  "æħĪåĸĦ": 106038,
  "ĠpamiÄĻ": 137696,
  "cano": 68277,
  "åĩºåĵģ": 110500,
  "ĉsend": 32817,
  "Ġgrabbed": 29318,
  "Ġoccupies": 75754,
  "ĠVictor": 32312,
  "MENT": 5328,
  "åįģå¤§": 104983,
  "äĢĢ": 150801,
  "å¿ĥçĽ®": 110508,
  "Ġqual": 5841,
  "ãģ¦ãģįãģŁ": 132335,
  "osto": 35790,
  "ĠisArray": 76969,
  "-lg": 7510,
  "[image": 92826,
  "Ut": 60120,
  "æįĥ": 120305,
  "Ġhealer": 97111,
  "_entity": 19169,
  "Ġ×ľ×Ķ×©×Ļ×Ĵ": 140871,
  "licting": 78208,
  "ĠphÆ°á»Ŀng": 140515,
  "Texture": 8783,
  "_DH": 92439,
  "atest": 13893,
  "_ef": 79410,
  "æ²¡ä»Ģä¹Ī": 105958,
  "posites": 80139,
  "íĥģ": 133376,
  "ç£²": 121741,
  "ãĤŃãĥĥãĥģãĥ³": 142935,
  "iska": 48560,
  "Ġdiscrim": 14238,
  "_FALL": 83962,
  "Æ°á»Ľc": 124603,
  "å´ĩæĭľ": 111009,
  "ÅŁe": 129053,
  "ĠBild": 44492,
  ".Win": 24694,
  "_APPRO": 75001,
  "Ġrealmente": 68847,
  "ç³ĩ": 123481,
  "SocketAddress": 69455,
  "property": 3699,
  "ĠListener": 47999,
  "ì¯ĺ": 151043,
  "_nf": 78225,
  "Ġjaki": 139537,
  "_framework": 27565,
  "Kitchen": 84583,
  "ĠJahre": 48015,
  "rovers": 12563,
  "_results": 13576,
  "_:*": 78593,
  "ðŁĵŁ": 151397,
  "ë¬": 124118,
  "Ġwaves": 16876,
  "ÙĤØ·Ø¹": 130389,
  "OLLOW": 30189,
  "ĠĠĠĠĠĠĠĠĠĠĠĠĠĠĠĠĠĠĠĠĠĠĠĠĠĠĠĠĠĊ": 96017,
  "uttgart": 54143,
  "Ġiii": 62093,
  "ĠÑģÐºÐ°ÑĩÐ°ÑĤÑĮ": 131684,
  "onal": 24202,
  "ðŁĴī": 146585,
  "\\xa": 46396,
  "ĠMonter": 64998,
  "å®ĿçŁ³": 108385,
  "uede": 63667,
  "{{": 2979,
  "ikut": 88994,
  "æĢ»ç»ıçĲĨ": 104266,
  "Ġchá»©a": 133456,
  "á¨ª": 150571,
  "íĢŃ": 148660,
  "ê¿İ": 146681,
  "âĢĿ),": 55855,
  "ewriter": 72480,
  "Private": 16787,
  "Ġpcs": 70299,
  "å«±": 121528,
  "_projection": 72738,
  "Ġversatility": 59012,
  "ÙĩØ§Ùħ": 131470,
  "powiedzie": 139570,
  "_ag": 20587,
  "éĬ·åĶ®": 113326,
  "(NS": 46729,
  "misiÃ³n": 132884,
  "ãģĵãģ¨ãģĮãģ§ãģį": 124741,
  "ĠREM": 25587,
  "_heading": 47242,
  "_changed": 25213,
  "IENT": 10757,
  "è¡¨æ¼Ķ": 104319,
  "å¸ĮæľĽèĥ½": 107452,
  ".damage": 68151,
  "Ġtricks": 28762,
  "akan": 19262,
  "Ġvery": 1602,
  "à¸Ľà¸±à¸į": 125213,
  "çĲĥè¿·": 105207,
  "æ¶Ķ": 120503,
  "assigned": 39021,
  "Ġà¸Ļà¸²à¸¢": 130499,
  "ViewPager": 94855,
  "æĻĤä»£": 111246,
  "çļĦåĲĮåŃ¦": 107870,
  "ÑģÑĤÐ°Ð½Ð°Ð²Ð»Ð¸Ð²Ð°": 135717,
  "åĥ®": 121465,
  "Ġ*);ĊĊ": 62610,
  "×§×ķ×¡": 138590,
  "à¸Īà¸£à¸´à¸ĩà¹Ĩ": 131926,
  "é£Łãģ¹ãĤĭ": 139113,
  "ĠNing": 85083,
  "/html": 13739,
  "ãĤĬãģ¾ãģĻ": 129443,
  "petition": 55767,
  "plode": 70744,
  "Ð·Ð¾Ð²": 131139,
  "eping": 54223,
  "_PKT": 69879,
  "ĠÐļÐ¾Ð»": 137686,
  "blo": 38145,
  "áĮ½": 151466,
  "severity": 77019,
  "Prov": 80261,
  "Ġmush": 29723,
  "×¡×¤×ĺ×ŀ": 143335,
  "éŀħ": 121368,
  "çĭ®åŃĲ": 109273,
  "ÐµÐ³Ð¾": 46195,
  "oster": 11713,
  "ç¬¬ä¸Ģå®¶": 111263,
  "ĠØ§ÙĦØ£ÙħØ±ÙĬÙĥ": 133492,
  "éĢłæŀĹ": 116681,
  "Ġroutine": 14021,
  "_criteria": 80990,
  "ĠCountry": 14106,
  "Ġ((__": 54323,
  "Ending": 88701,
  "EXEC": 46340,
  "Ġborr": 96552,
  "Ġlesions": 62224,
  "defaultValue": 53102,
  "×ľ×Ľ×Ĳ×ķ×¨×Ķ": 143771,
  "swana": 93710,
  "à²¥": 146847,
  "Ø¹Ø³ÙĥØ±": 133195,
  "ropping": 80204,
  ".SetToolTip": 93949,
  ".fr": 18798,
  "ENSIONS": 84722,
  "ĠAwesome": 38305,
  "urga": 90776,
  "Ġmdi": 68944,
  "Ġstud": 1673,
  "åıĹå®³": 103497,
  "Calcul": 57908,
  "-state": 20733,
  "_clear": 21811,
  "AAF": 71038,
  ".plugin": 26969,
  "å¤©æīį": 108407,
  ".info": 5391,
  "agt": 62713,
  "'=": 60285,
  "ĠØ§ÙĦØ£Ø³Ø¨ÙĪØ¹": 138147,
  "-hot": 59447,
  ".Ċ": 624,
  "æµģçķħ": 110205,
  "Ġrepair": 12733,
  "ï¯ł": 148778,
  "/G": 15792,
  "_NS": 33777,
  "Ġcompl": 4581,
  "Ġstructured": 32930,
  "ÐºÑĨÐ¸Ð¾Ð½": 139489,
  "ĠØ§ÙĦÙĥØ±": 130913,
  "ĠRice": 29516,
  "*t": 15176,
  "ĠEmpty": 22228,
  "ãĥĹãĥŃ": 126574,
  "ä¸ĵé¡¹æķ´æ²»": 111377,
  "æŁĲ": 99569,
  "å¼Ģè®¾": 105701,
  "Ġdeactivated": 83616,
  "ä¸įè¯´": 107023,
  "ØªÙĥÙĨ": 135929,
  "åĵ¥ä»¬": 117091,
  "Attach": 30485,
  "Ġliá»ģn": 132726,
  "åĲĪèµĦ": 103131,
  "itionally": 17412,
  "à¸Ħà¸²à¸ªà¸´à¹Ĥà¸Ļ": 128069,
  "urrection": 39204,
  "-moving": 85472,
  ".favorite": 91464,
  "ìģ©": 145398,
  "onest": 35124,
  "Ġsuppl": 81013,
  "ìŀħ": 43866,
  "ä½¿åĬ²": 118477,
  "åįģåĩłå¹´": 109745,
  "ault": 945,
  "mixed": 56685,
  "Joined": 41373,
  "ĠPERFORMANCE": 80946,
  "ï³Į": 145161,
  "GRES": 91891,
  "æĨº": 123588,
  "'>\"": 34438,
  "é¬ĵ": 119525,
  "Ø±Ø§Øª": 125815,
  "ĠØ£ØºØ³Ø·": 138245,
  ".put": 3597,
  "éĿ¢éĥ¨": 108354,
  "åºĶæĶ¶è´¦æ¬¾": 117467,
  "']]Ċ": 48571,
  "ĠABI": 63214,
  "çļĩä¸Ĭ": 111469,
  "ĠCDN": 88365,
  "ifecycle": 19517,
  "ENS": 20359,
  "ĠTá»ķng": 130017,
  "Ġskills": 7361,
  "idata": 81080,
  "ĠaÃ§Ä±s": 136697,
  "åļ": 99516,
  "ĠFY": 46366,
  "mini": 36411,
  "Armor": 62882,
  "ĠCollider": 73821,
  "struct": 1235,
  "å¯¦çı¾": 113967,
  "Ġlineman": 81673,
  "(o": 10108,
  "ĠÙĪØ¨Ø¹Ø¯": 133593,
  "Ġconfident": 16506,
  "Ġê°ĢëĬ¥ìĦ±": 142724,
  "ĠÄĳiá»ģu": 128334,
  "ĠyAxis": 62578,
  "_draft": 91339,
  "ĠnÃ¤r": 64375,
  "åīĬ": 101778,
  "è·¯è¿ĩ": 112319,
  "çĶŁäº§": 99426,
  ">`": 43626,
  "Ġcomparatively": 70461,
  "_VALIDATE": 63927,
  "à¹Ģà¸£à¸²à¸ģà¹ĩ": 138543,
  "çŀ°": 121751,
  "NOP": 57556,
  "_SH": 6834,
  "Ġbreakpoints": 91530,
  "RelativeLayout": 98742,
  "åĨįåĪ°": 107947,
  "Ġjus": 44807,
  "Ġexposures": 69430,
  "ĠÐĲÐ»ÐµÐºÑģÐ°Ð½": 133866,
  "âĹĲ": 145936,
  "ĠsearchTerm": 89026,
  "bd": 8940,
  "Ġcurtain": 45766,
  "Ġtruyá»ĩn": 135867,
  "ĠØ³Ùħ": 131409,
  "ê¡Ĳ": 146884,
  "_AV": 29386,
  "dÃŃ": 133489,
  "VC": 11287,
  "ç¦ħ": 105602,
  "ĠìĪĺíĸī": 139393,
  "çĪª": 108302,
  "ne": 811,
  "ä¸ĩåĪĨ": 113793,
  "ĠPLAN": 72566,
  "Ġ×ŀ×ĳ×Ĺ×Ļ×ł×ª": 137510,
  "âı«": 150675,
  "JSImport": 74190,
  "ĠFF": 29942,
  "é²Ļ": 123375,
  "Ġmessage": 1943,
  "ĠDIV": 46260,
  "unsch": 80791,
  "horse": 59675,
  "ç±į": 100533,
  "ĠFarage": 93906,
  "Ġreplication": 47791,
  "AFE": 29852,
  "ãĤĤãģĤãĤĬãģ¾ãģĻ": 130524,
  "ĠIncluded": 45964,
  "/link": 55431,
  "GX": 84432,
  "Ġzaman": 83140,
  "Ġcmd": 5439,
  "IEWS": 63090,
  "å·²æľī": 104709,
  ".Ignore": 48590,
  "Ġnone": 6857,
  "-display": 52839,
  "INAL": 29446,
  "ĠJose": 10860,
  "é¥®æĸĻ": 106099,
  "(xs": 53322,
  "essenger": 40137,
  "ĠgiÃ¡c": 130780,
  "bread": 47516,
  "âĪĬ": 150644,
  "Ġask": 2548,
  "_are": 56855,
  "icz": 52222,
  "_Params": 44656,
  "NodeId": 79206,
  "éħ¶": 108735,
  "çĲĥåĳĺ": 104251,
  "Ñı": 4235,
  "ĉlabels": 95143,
  "Ġ×Ķ×ŀ×ª": 129113,
  "principal": 66450,
  "ìĿŃ": 149783,
  "/commons": 91567,
  "ACITY": 62985,
  "ä¼¼ä¹İ": 101994,
  "_empty": 15124,
  "-uri": 87232,
  "åİŁåīĩ": 117406,
  "à¸ķà¸£à¸§": 127260,
  "ĠsÄ±cak": 135957,
  "Ġpayer": 69275,
  "Ġ****": 30704,
  "bk": 40029,
  "Pos": 4859,
  "ujÄħcy": 132154,
  "ĠÃ¡mb": 143477,
  "Ġfellows": 86719,
  "ðĿĹ¶": 147118,
  "æŁ´æ²¹": 109124,
  "Ġinmates": 41612,
  "RegExp": 50192,
  "ĠFileType": 93238,
  "Ġpe": 1051,
  "ÙĬØ§": 124075,
  "mounted": 81516,
  "¦Ĥ": 24447,
  "Ġallen": 50041,
  "onacci": 39345,
  "Ġná»ģn": 131167,
  "à¸ªà¸¥": 143715,
  "ĠÐļÐ¾Ð½": 127443,
  "ä¸īæľŁ": 115714,
  "ĠDecide": 98881,
  "Ġpoetic": 75434,
  "-row": 19545,
  "ĠØ·Ø¨ÙĬØ¹ÙĬ": 141755,
  "Ġanew": 92292,
  "åĨ³æĪĺ": 113675,
  "Ġà¹ģà¸ķà¹Ī": 125442,
  "Ġautomatically": 9463,
  "çľŁç©º": 110797,
  "iosis": 90160,
  "à¸ĺà¸²à¸ķà¸¸": 142657,
  "WS": 7433,
  "ãģłãģ£ãģŁ": 125464,
  "Ġcomputing": 24231,
  "äºĨè§£ä¸Ģä¸ĭ": 110050,
  "__(/*!": 51796,
  ":v": 52649,
  "Ġíķ": 20136,
  "æĻºåºĵ": 111317,
  "å¦ĵ": 119128,
  "èĮĮ": 119822,
  "æĥħèĬĤ": 102892,
  "é¼Ĳ": 121533,
  ".var": 19526,
  "è¿ĺæĺ¯": 99998,
  "Ġmortgages": 60898,
  "Ġnam": 16449,
  "ç»Ļåĩº": 107485,
  "Ġtranscript": 35715,
  "Ġyell": 64313,
  "à¹ģà¸Ķà¸Ķ": 141738,
  "èĬ¯": 102491,
  "FIELD": 28747,
  "ĠĠĠ": 262,
  "Ġchast": 74107,
  "è§ģè¯ģ": 103021,
  "ĠDevices": 40377,
  "Ġrio": 94704,
  "Ġsensational": 67403,
  "Ġå·": 83002,
  "SEP": 81376,
  "finally": 39176,
  "_TOKEN": 18681,
  "SelectedItem": 75899,
  "ØªÙĨØ³ÙĬÙĤ": 137970,
  "(Category": 58081,
  "ĠEnhancement": 52517,
  "äºĭä¸ļ": 100701,
  "_DS": 51901,
  "oden": 54736,
  "_duplicates": 75051,
  "_rules": 21407,
  "Ġexploring": 23966,
  "à¸Ļà¹īà¸Ńà¸¢": 128898,
  "(song": 60873,
  "elman": 63541,
  "_AMD": 98624,
  "Ġpipelines": 57673,
  "âµĵ": 147043,
  "Ġhref": 1801,
  "bs": 1279,
  ".bad": 31563,
  "Ġmountains": 23501,
  "photos": 24603,
  "Ġfin": 1875,
  "åĥµå°¸": 115056,
  "ĠOrig": 45498,
  "éĺ¿æĭī": 103525,
  "-date": 18413,
  "updating": 92054,
  "èĭ¥æľī": 109950,
  "Jones": 72098,
  "äºĴåĪ©": 118683,
  "è°ĥä¾ĥ": 113863,
  "æľīä¸Ģå®ļ": 108342,
  "ãĤĦãģĻãģĦ": 129902,
  "ÓĲ": 148043,
  "ocument": 1452,
  "Ġannex": 53268,
  "Ġdieta": 66856,
  "èººçĿĢ": 118856,
  "ĠìĿ´ìľł": 132819,
  "Proto": 31549,
  "ë°ĳ": 144244,
  ".roll": 62614,
  "à¹Ģ": 27891,
  "Asian": 67440,
  "éĹ»åĲį": 109836,
  "Ġwhilst": 23856,
  "uchar": 29272,
  "Ġmessy": 45846,
  "ĠtitleLabel": 60820,
  "ĠMoff": 96381,
  ".pool": 38963,
  "ULE": 7717,
  "è¯¸èĳĽäº®": 112101,
  "åīĬåĩı": 115688,
  "PRI": 57342,
  "l": 75,
  "Ġ×ĳ×Ķ×Ŀ": 130586,
  "å£°éģĵ": 111332,
  "ðŁĸķ": 147732,
  ".timeout": 36110,
  "ĠThÆ°": 138532,
  "lotte": 24573,
  "qa": 15445,
  "ĠMystic": 88525,
  "ç§¯èĵĦ": 116207,
  ".stderr": 34742,
  "Ġmeets": 20027,
  "ĉMatrix": 59198,
  "Ġblo": 14211,
  "ç²¾ç¥ŀæĸĩæĺİ": 117650,
  "ĠHidden": 34242,
  "SignIn": 35423,
  "Ġregistration": 12227,
  "Ġbrunette": 48117,
  "Ġllegar": 74783,
  "éĤ®å¯Ħ": 113975,
  "ĠWeb": 4895,
  "ĠElement": 8543,
  "ÑĢÐ¼Ð°": 138510,
  "á½": 123844,
  "á¸ĥ": 151535,
  "NSDate": 40516,
  "_positions": 37219,
  "Ġneighbor": 9565,
  "Ġulcer": 95871,
  "è´£ä»¤": 108993,
  "ĠbugÃ¼n": 131819,
  "åĴĲ": 103735,
  "Nav": 10096,
  "æİ¨åĭķ": 115503,
  "éĽ¨æ°´": 110375,
  "âĶĲ": 145624,
  "æŃ¤äºº": 112738,
  "Ġ[]ĊĊ": 14599,
  "ĠOverse": 85303,
  "ĠHelvetica": 59546,
  "ĠCrossing": 64993,
  "Ġcropping": 98937,
  "_;Ċ": 8588,
  "(rank": 70876,
  "æĥħåĨµ": 99559,
  "ĠLehr": 91853,
  "ëıĶ": 145036,
  "ä¸ĭåıĳ": 107973,
  "æĸ¥": 101709,
  "iversity": 2977,
  "ĠTooltip": 59223,
  "åĽ½éĻħè´¸æĺĵ": 112778,
  "webs": 88895,
  "åĪ¤å¤Ħ": 112217,
  "ĠczÅĤ": 133089,
  "aes": 76584,
  "è¡Ģç³ĸ": 110162,
  "inerary": 51553,
  "à¸Ńà¸ĺà¸´à¸ļà¸²à¸¢": 143480,
  "ĠÐĵ": 60465,
  "æ°´æĻ¶": 108390,
  "Ġcite": 38296,
  "getOrElse": 91702,
  "Ġminut": 81370,
  "-": 12,
  "ĠLocalDateTime": 47465,
  "allen": 57301,
  "é¢ĨåħĪçļĦ": 109162,
  "Designer": 56348,
  "prestashop": 91292,
  "åģļæĪĲ": 108453,
  "åĲĪä¼Ļ": 103182,
  "classic": 79709,
  "ĉĉĉĉĉĉĠĠĠĠ": 90075,
  "ĠThou": 85371,
  "isbury": 84606,
  "drivers": 62125,
  "_RES": 10983,
  ".blank": 54959,
  "Ġroof": 15134,
  "è¹´": 122022,
  "ï½Ŀ": 145409,
  "åıĳ": 28291,
  "Ġvideog": 88017,
  "_MSG": 14372,
  "Ġearrings": 66201,
  "Lf": 66678,
  "ĠTall": 41102,
  "ç£ķ": 111897,
  "ĠÐ¿ÑĢÐ°Ð·": 137963,
  "ĠSof": 35547,
  "åı¯ä»¥ä»İ": 112255,
  "ĠÐ¸Ð¼ÐµÐµÑĤ": 130318,
  "ĠNon": 11581,
  "ĠUCS": 79246,
  "ĠDreams": 52618,
  "æĸ°äº§åĵģ": 108055,
  "ÙģÙĬØ¯": 131003,
  "RACT": 50411,
  "êª¼": 150846,
  "ðŁ¤¤": 145647,
  "-gen": 36464,
  "æĽ·": 120109,
  "è¦ģå®³": 117676,
  "ynchronized": 42164,
  "Ġspeaker": 18601,
  "ĠÐ´Ð¾ÑģÑĤÐ°ÑĤ": 132459,
  "Ġsáº¡ch": 131560,
  "ĠíĬ¹ìłķ": 142976,
  "Ġappearing": 25377,
  "ëĪĮ": 144313,
  "Ġì§Ħíĸī": 132876,
  "åĿıäºĭ": 118353,
  "èĳĹä½ľæĿĥ": 114033,
  "ĠØĮ": 128287,
  "aws": 8635,
  "×ľ×ŀ×Ļ×Ŀ": 137252,
  "Ø¹Ø§Ø·Ùģ": 143218,
  "(counter": 41320,
  "åĲĲ": 101377,
  "Ð½Ð¸Ð·": 131350,
  "CD": 6484,
  "ĠLIMIT": 10376,
  "ï±ī": 148886,
  "ä»ĸãģ®": 130324,
  "Kenn": 88634,
  "ĠØ§ÙĦÙħØªÙĪØ³Ø·": 141359,
  "=f": 18111,
  "Ipv": 80656,
  "ĠÐ½ÐµÐ´Ð¾": 135681,
  "ÑİÑīÑĥÑİ": 142185,
  "ãģĮãģĤãĤĬ": 126818,
  "Ġcarrot": 74194,
  "(array": 6110,
  "ĠØ§ÙĦØ¯ÙĪÙĦØ©": 129814,
  "scheduled": 93585,
  "sparse": 98223,
  "Ġmanpower": 95769,
  "ĠHumans": 64994,
  "ĠìĦ¤": 57852,
  "ĠDER": 46777,
  "entin": 43409,
  "ĠSPACE": 52060,
  "Ġsonra": 84126,
  "åħĦå¼Ł": 104212,
  "×ķ×ł×ķ": 134525,
  "Ġdanske": 55753,
  "WN": 36919,
  "sector": 44757,
  "ä¸Ģå¦ĤæĹ¢": 113810,
  "ðĿĳľ": 145327,
  "itat": 47777,
  "Ð´Ð²Ð¸": 132541,
  "åŃ¤ç«ĭ": 118606,
  "âĩĬ": 148798,
  "Ġgaat": 68045,
  "Ġremarks": 23325,
  "@hotmail": 58031,
  "ìĨĢ": 150976,
  "gv": 21404,
  "Éĥ": 148278,
  "Ġpada": 31811,
  "Ġwrist": 32171,
  "ë½Ī": 147856,
  "Ġ{@": 6418,
  "à¸¬": 127380,
  "ĠKurdistan": 78944,
  "Ġmade": 1865,
  "ucker": 24370,
  "Ġcustody": 24492,
  "examples": 51668,
  "×Ĺ×ª": 124812,
  "Ġscores": 12205,
  "odka": 56540,
  "åłħæĮģ": 115474,
  "reu": 64786,
  ".absolute": 55930,
  "Ġpom": 29484,
  "çľ¼ç¥ŀ": 108564,
  "à¸Ĺà¸±à¸§": 137815,
  "äºĶåĪĨéĴŁ": 118332,
  "èµĵ": 121027,
  "è±ĨèħĲ": 107590,
  "videos": 34023,
  ".SelectedValue": 31216,
  "ĠìĦł": 129296,
  "outputs": 41006,
  "Ð±Ð»Ð°Ð³Ð¾": 132501,
  "äºĮäºº": 105837,
  "(records": 77479,
  "Ġ×ĳ×ł": 125278,
  "ĠMaterial": 10230,
  "ĠHate": 65812,
  "çĶ©": 107001,
  "ĠclearInterval": 45585,
  "ĠAnother": 13293,
  "Ġscrews": 44922,
  "ĠKap": 31665,
  "æ¬§ç¾İ": 107054,
  "ïŃģ": 149445,
  "ĠSTAR": 56745,
  "ðŁķ·": 149938,
  "_notification": 34296,
  "æĢ»æķ°": 107737,
  "ĠAssumes": 98107,
  "ĠProduced": 87265,
  "/crypto": 84229,
  "Ú°": 146874,
  "çŀ©çĽ®": 111299,
  "ĠPablo": 52763,
  "à¸Ľ": 54684,
  "Ł³": 58715,
  "addEventListener": 32374,
  ".KeyEvent": 58808,
  "ĠdateTime": 34608,
  "ĠFI": 50535,
  "_LINUX": 74025,
  "Ġverm": 95898,
  "à¸£à¸ª": 127456,
  "à¸Ńà¸±à¸Ļà¸ķà¸£à¸²à¸¢": 140790,
  "ï¯µ": 149853,
  "coon": 72235,
  "ĉget": 10366,
  "á½Ĺ": 149622,
  "éºĤ": 121279,
  ".ham": 50602,
  "*v": 49149,
  "chin": 59071,
  "Ġinstituted": 79999,
  "ww": 1250,
  "Ġimplementation": 8129,
  "ĉdriver": 33652,
  "åĩ¡æĺ¯": 109940,
  "ValidateAntiForgeryToken": 50826,
  "éĺ²å®Ī": 106365,
  ".local": 11033,
  "Ġnah": 68917,
  "=k": 45157,
  "Ġ×¢×ķ×ŀ×ĵ": 133274,
  "çĻ»ä¸Ĭ": 108533,
  "ä¿ĿæĬ¤åĮº": 113891,
  "ÑıÑģÑĮ": 132890,
  "Ġbounce": 33682,
  "ĠhÃ¼kÃ¼m": 142799,
  "Ġchubby": 93778,
  "ĠdateFormat": 49267,
  "æĲĴ": 123144,
  "ccb": 81317,
  "è¿ĳæĹ¥": 104214,
  "ï¼¹": 144224,
  "ç»Ŀå¯¹ä¸įä¼ļ": 117397,
  "Ø·Ø±Ùģ": 130349,
  "çŃĽ": 101737,
  "à¹Ģà¸Ħà¸£à¸Ķà¸´à¸ķ": 139892,
  "âĺ¼": 145128,
  "Ø§ÙĦ": 31382,
  "à¸ªà¸Ļ": 124450,
  "(Exception": 16813,
  "Ġchá»Ĺ": 131501,
  "ankind": 69270,
  "ä¿¡æīĺ": 106295,
  "_fs": 34470,
  ".Windows": 1929,
  "Ġnadzie": 142241,
  "Ġ×ĳ×©×ł×Ļ×Ŀ": 138572,
  "Ġthinker": 97536,
  "rong": 14347,
  "éĩĲ": 123662,
  "<decimal": 98067,
  "å·¾": 103203,
  "Ġconsistently": 20699,
  ",,,,": 26758,
  "Ð½ÐµÑĢ": 125763,
  "Ġfseek": 79262,
  "åºĶåıĬæĹ¶": 117417,
  "à¸£à¸²à¸¢à¸ĩà¸²à¸Ļ": 133643,
  ".flatten": 48198,
  "Ġpreference": 21933,
  "ĠAPPLY": 88986,
  "ç¯®çĲĥ": 105732,
  "ĠphÃ³ng": 136607,
  "çĤº": 99731,
  "Ġexpands": 51856,
  "Ġstructural": 23759,
  "urvey": 38278,
  "_FUNCTIONS": 95484,
  "åħ¬åħ±æĸĩåĮĸ": 118859,
  "Ġfabulous": 34531,
  "ä¸įèĥ½åĨį": 112268,
  "ĠPand": 33506,
  "oming": 17765,
  "ĠØ§ÙĦØ´Ø¹Ø±": 133892,
  "éİĸ": 117642,
  "ĠÃĩalÄ±ÅŁ": 137874,
  "Security": 15352,
  "aea": 70335,
  "à¸ģà¸£à¸¡": 127424,
  "(lr": 81599,
  "Ġaument": 40780,
  "ociety": 6052,
  "×¤×¨×ķ": 127262,
  "_%": 18695,
  "Ø£ÙħØ±Ø§Ø¶": 137196,
  "asuring": 68674,
  "ĠQTimer": 96669,
  "ĠEFI": 39082,
  "Ġlooked": 6966,
  "åŀ±": 120023,
  "/Common": 78086,
  "èĥĥåı£": 117909,
  "luÄŁun": 136253,
  "almost": 59201,
  "ĠLOCAL": 42501,
  "âĿĽ": 146832,
  "ĠíĶ¼íķ´": 142511,
  "RUN": 47390,
  "bots": 61905,
  "ãģļãģ£ãģ¨": 134104,
  "ä½¿äºº": 109125,
  "×ŀ×Ĺ": 124348,
  "Ġerrno": 26955,
  "ĠSmile": 78305,
  "\\xd": 52512,
  "itors": 11905,
  "Ġquotas": 84818,
  "Ġseulement": 70586,
  "Ġà¸ŀà¸¤à¸©à¸łà¸²à¸Ħà¸¡": 143149,
  "thÃ¨que": 143536,
  "ubre": 63259,
  "ĠÑĥÑģÑĤÑĢÐ¾Ð¹ÑģÑĤÐ²Ð°": 142286,
  "ĠDÃ¶n": 140901,
  "LineColor": 82748,
  ".awt": 6700,
  "-Bar": 93320,
  "åĪĺ": 100351,
  "issional": 89580,
  "ð«ĮĢ": 123267,
  "ĠSkinner": 97042,
  "ĠtimeZone": 98764,
  "Ġpurified": 91500,
  "ĠRus": 40976,
  "çī¹æĿĥ": 115899,
  "à¸ģà¸¸à¸¥": 136715,
  "Ġhateful": 75715,
  ".En": 22834,
  "×¢×ĳ×Ļ×¨": 127054,
  "ĠInt": 1333,
  "æľīä»·åĢ¼çļĦ": 111186,
  "alph": 30223,
  "èĦ¾æ°Ķ": 107929,
  "ĠêµŃìłľ": 138249,
  "åĽ¢å§Ķ": 118436,
  "æī§": 99645,
  "ÙĩÙī": 132933,
  ",and": 50426,
  "Ġtys": 77439,
  "èģį": 122763,
  "Installing": 62603,
  "uthor": 1553,
  "...'Ċ": 80330,
  "ĠĠĠĠĠĠĠĠĠĠĠĠĠĠĠĠĠĠĠĠĠĠĠĠĠĊ": 75228,
  "Ġconsect": 33835,
  "corr": 59277,
  "_COPY": 35556,
  "ĠÐ¿ÑĢÑı": 135150,
  "è¿ĽçĲĥ": 107650,
  "å»Ĭ": 101701,
  "è¿Ļä¹Īåģļ": 112663,
  "æĭĴä¸į": 118207,
  "Ġacademics": 47609,
  "CNT": 97254,
  "ï¤ı": 148422,
  "Ġ......": 74108,
  "ãģĤãĤĭãģĦ": 139485,
  "(Profile": 98379,
  "é¢ĺä¸»": 109842,
  "ëŀĦ": 144303,
  "Ġ/>}Ċ": 36781,
  "ĠEar": 6809,
  "(fake": 74138,
  "ìĹĪëįĺ": 139325,
  "åĳ½ä»¤": 106167,
  "ĠMonkey": 57837,
  "ïŃ»": 151175,
  "è¡Į": 22243,
  "Ġder": 2694,
  "Ġspontaneously": 87458,
  "Follow": 12480,
  "æ¶¤": 103739,
  "_PROCESS": 36199,
  "ĠDataType": 33172,
  "ìĿ¼": 32077,
  "íħĿ": 145188,
  "å°´å°¬": 105780,
  "ĠNapoli": 85676,
  "ĠAnth": 16580,
  "Ã¬m": 126303,
  "ĠÅĽwi": 127852,
  "âĪ©": 145224,
  "ancel": 4949,
  "Ġloves": 15803,
  "×¤×¡×Ļ×Ľ": 140479,
  "é¼¯": 122071,
  "Ġvent": 10378,
  "ãĬ": 124201,
  "peed": 4508,
  "çĥŃéĹ¨": 105034,
  "Ġsubmit": 9318,
  "Ġconditions": 4682,
  "é»ī": 123590,
  "Ġji": 73885,
  "chematic": 81049,
  "Ġstrike": 13169,
  "]initWith": 38689,
  "'all": 64848,
  "ĠSuz": 34387,
  ".WRAP": 80303,
  "ĠLOGGER": 28088,
  "ĠÑįÐºÐ¾Ð½": 138360,
  "arna": 39215,
  "ĠâĢ¦": 4593,
  "ĠWB": 52503,
  ",@": 31113,
  "/span": 90345,
  "_H": 2039,
  "×ķ×Ľ×ľ": 125754,
  "Ø§ÙĨÙĬØ§": 127219,
  "å¯Įæľī": 106573,
  "çĽ¸åıį": 106124,
  "Apart": 69504,
  "ovies": 12546,
  "ç²īä¸Ŀ": 104574,
  "Ġwoven": 55774,
  "Ġcriminals": 31538,
  "\"))čĊ": 26043,
  "Collection": 6482,
  "_chg": 96276,
  "Ġbows": 81465,
  "ĉĉĉĉĠ": 16693,
  "Ġwash": 11369,
  "ipop": 79382,
  "å¾ģæĶ¶": 107374,
  "âĢľWell": 87825,
  "ĠsetStatus": 56304,
  "Ġ\"$(": 41553,
  "Ġinteracts": 83161,
  "Ġah": 22327,
  "contentType": 44963,
  "Ġjika": 70879,
  "ĠYa": 39384,
  "(annotation": 87441,
  "ĠErl": 80834,
  "ĠYo": 43088,
  "âĢľAs": 60453,
  "×Ļ×ľ×Ļ": 126983,
  "Ġsing": 7780,
  "Ð½ÑĥÑĤÑĮ": 130665,
  "Ġsearched": 26502,
  "ĠHS": 33414,
  "AIN": 6836,
  "ĠDÆ°Æ¡ng": 130695,
  ".met": 40648,
  "âĸį": 149048,
  "Ġbande": 94038,
  "Ġsubscriptions": 40355,
  "RET": 38064,
  "Ġuten": 85473,
  "XC": 37946,
  "ĠNháºŃn": 142435,
  "ä¸Ģå¦Ĥ": 113809,
  "åı¯ä¾Ľ": 111279,
  "ĠØ§ÙĦØ£Ø³ÙĩÙħ": 139090,
  "ĠPremiere": 68824,
  "wchar": 81604,
  "Ġragaz": 32433,
  "ĠÐ°Ð²Ð¸": 140273,
  "SetText": 83831,
  "ĠSV": 17481,
  "ĠMAN": 25735,
  "à¸ŀà¸£à¸°à¸ŀà¸¸à¸Ĺà¸ĺ": 140681,
  "socket": 9556,
  "äºĮæ°§åĮĸç¢³": 114804,
  "ĠPill": 34136,
  "Ġdomains": 30476,
  "ç»Ŀå¯¹æĺ¯": 108159,
  "å¹¾åĢĭ": 113330,
  "()?.": 57495,
  "ĠAccuracy": 50175,
  "×³": 138187,
  "Ġduk": 87477,
  "Ġnational": 5313,
  "ç®¡çĲĨæ¨¡å¼ı": 110672,
  "ÙĪÙĩ": 129094,
  "èł²": 122112,
  "UTH": 9153,
  "ĉout": 13967,
  "æ´ĭèĳ±": 117956,
  "ĠRuntime": 10954,
  "×ŀ×§×ĵ": 136898,
  "ymous": 89392,
  "Ġpersonas": 31425,
  "IPS": 25944,
  "=M": 49682,
  "å§Ĵ": 119781,
  "æ¶ĪèĢĹ": 104997,
  "Ġoscill": 42424,
  "Mus": 61598,
  "PublicKey": 61822,
  "Ġcompulsory": 64768,
  "à½Ĩ": 147345,
  "Ġenduring": 51776,
  "ĠkardeÅŁ": 136160,
  "Ġlegislators": 47862,
  "Ġcoherent": 55787,
  "Ġcorrectly": 12440,
  "Ġindonesia": 84378,
  "å¹´ç»Ī": 113580,
  "ä»¥ä¾¿": 105920,
  "å³ĥ": 122357,
  "ĠHistorical": 40043,
  "ĠØ§ÙĦØ³ÙĦØ·Ø§Øª": 141405,
  "Ġevaluating": 37563,
  "Ġpubb": 60149,
  "Ġdys": 21943,
  "WithString": 52342,
  "wing": 23593,
  "Ġdevices": 7611,
  "à¸Ħà¸Ńà¸¡": 127780,
  "Neil": 61940,
  "ĠÑĩÐµÐ»": 126633,
  "ĠAviation": 48947,
  "sender": 11644,
  "ĠBeam": 50130,
  "ĠÑģÐ¾Ð²ÐµÑĢÑĪÐµÐ½": 142855,
  "ìİĪ": 145888,
  "-mult": 96927,
  "ÙĨØ§": 124104,
  "Ġgrilled": 60633,
  "à¹ĥà¸«à¸¡": 126232,
  ".databind": 54873,
  "ĠSirius": 60034,
  "æĬ¥ä»ĩ": 117238,
  "ĠLuther": 35202,
  "ĠGdaÅĦsk": 141845,
  "Ġfame": 32551,
  "Ġmip": 72751,
  "ĠNaruto": 48994,
  "Ġamazon": 38416,
  "æµģå¤±": 108862,
  "AndWait": 92812,
  "å¤ĸéĥ¨": 105413,
  "éģ©åĲĪ": 113452,
  "frican": 47793,
  "ĠNOTES": 69946,
  "EK": 71133,
  "ĉSize": 91224,
  "ä¸įåı¯æĢĿè®®": 113325,
  "\\\\\\\\": 51007,
  "_error": 4096,
  "Ġtargets": 11550,
  "á»©": 58812,
  "á½¸": 145348,
  "ĠÐ°Ð´": 142742,
  "guess": 51751,
  "×Ĳ×ľ×Ļ×ŀ×ķ×ª": 142461,
  "(Command": 41422,
  "çĶ¡": 122651,
  "ĠâĨĶ": 77650,
  "strcmp": 14222,
  "Ġbands": 20892,
  "=password": 73517,
  "äºĴåĬ©": 110820,
  "áĮģ": 150506,
  "ĠBSON": 76235,
  "Ġcontribute": 16792,
  "ided": 4490,
  "Ġ^(": 75097,
  "ĠCOVID": 19966,
  ":both": 95716,
  "())": 2140,
  "ĠnewPos": 82375,
  "Ġdedication": 38855,
  ".INVALID": 73337,
  "æĢİä¹Īè¯´": 111245,
  "Ġye": 19478,
  "ĠCONST": 29602,
  "Ġná»Ļp": 143281,
  "ĠistediÄŁi": 138396,
  "ISA": 34201,
  "Localization": 73614,
  ")'),": 72280,
  ".mj": 96151,
  "ãģĹãĤĩãģĨ": 124505,
  "Ġstagn": 53263,
  "Ġgraveyard": 71833,
  "-reset": 76403,
  "Ġà²": 89434,
  "(coords": 65173,
  "_python": 55869,
  "å¤įåıĳ": 111574,
  "ä¸ĭ": 16872,
  "Éĳ": 144528,
  "Ġapopt": 82946,
  "ETF": 42239,
  "anova": 85463,
  "Ġado": 55185,
  "ĠSCRIPT": 53679,
  "odata": 56169,
  "orable": 24715,
  "èįĶæŀĿ": 116220,
  ".Are": 12747,
  "Ġsynth": 42898,
  "Strings": 20859,
  "by": 1694,
  "çĤ·": 120218,
  "Ġbillionaire": 46694,
  "Ø´ÙĩØ±": 127911,
  "Ġsidelined": 97948,
  "reshape": 16137,
  "Ġturns": 10577,
  "Ġregarding": 8826,
  "ĠÐĿÐ¾Ð²Ð¾": 130922,
  "unj": 68914,
  "ĠHEAD": 33080,
  "åıĤå±ķ": 106991,
  "Ġorg": 1240,
  "BLOCK": 39964,
  "ĠRider": 53842,
  "ÂŃtion": 68605,
  "Ġ×ķ×ŀ×Ķ": 131740,
  "åĵĨ": 119356,
  "ĠkhÃ¡c": 128354,
  "Ġtrauma": 29888,
  "leton": 15616,
  "Ø·Ø§": 129157,
  "(Route": 94945,
  "ĠLine": 7083,
  "Ġ[]čĊ": 23147,
  "âĸĨ": 149046,
  "Ġdus": 52432,
  "ĠpeÃ§a": 137395,
  "Ġextremism": 69668,
  "magnitude": 96264,
  "à¸Ńà¸²à¸ģ": 131710,
  "×ĺ×¢×ł×ķ×ª": 141703,
  "Ġliter": 6935,
  "ðĿĳ¬": 150075,
  "Ġearthquake": 37313,
  "Ê±": 148502,
  "ĠLSU": 64412,
  "ĠPicture": 24568,
  "Ġadds": 11367,
  "åıĤèµĽ": 106311,
  "æµĳèº«": 109464,
  "×Ķ×ª×Ĳ×ŀ×Ķ": 142415,
  "ìĹĺ": 144054,
  "ãĤĴèĢĥãģĪ": 133678,
  "çľĭèµ·ä¾Ĩ": 117518,
  ".singletonList": 93938,
  "Ġprostitutas": 20580,
  "æĬĬæİ§": 115509,
  "ĠRomeo": 70192,
  "Ġtor": 5683,
  "/ubuntu": 79926,
  "ãĥĢãĤ¤ãĤ¨ãĥĥãĥĪ": 136772,
  "åĲİæľŁ": 104694,
  "åĮĨåĮĨ": 108933,
  "×ŀ×ĵ×Ļ×ł": 127278,
  "Ġassess": 8552,
  "/ca": 80591,
  "å¤©èĬ±æĿ¿": 115699,
  "Ġshipment": 43754,
  "ERA": 25679,
  "Ao": 98312,
  "Ġreflux": 92162,
  "IKE": 71966,
  "ĠAx": 25171,
  "ĠÐ´": 7796,
  "åĨľä½ľçī©": 113405,
  "Ġsabotage": 79653,
  "Ġthinkers": 68022,
  "Ġfis": 41623,
  "ÙħØ¹Ø§ÙĦ": 140409,
  "etable": 35064,
  "Ġgpointer": 58398,
  "Ġsubnet": 51457,
  "Ġrepublican": 90436,
  "æľ¨åľ°æĿ¿": 115612,
  "ĠHari": 97445,
  ".xaxis": 98423,
  "Ġoctave": 73932,
  "ãģĵãģ¡ãĤī": 126839,
  "ishments": 98953,
  "unittest": 91005,
  "')==": 98891,
  "oley": 48999,
  "Ġinterpreting": 65644,
  "getElement": 75657,
  "å¦¨ç¢į": 115871,
  "ĠAstroph": 93102,
  "åĪĺæŁĲ": 115192,
  "ĠSá»ĳ": 134175,
  "_bot": 38883,
  "Ġpredominant": 95431,
  "ãģĹãģŁãģĵãģ¨": 136527,
  "åĮºåĪ«": 102665,
  "cej": 57245,
  "ĠEditing": 61053,
  "Ġszczeg": 126161,
  "Ġgenie": 82757,
  "Ġbuddies": 60350,
  "æµ·é²ľ": 109692,
  "\"testing": 42097,
  "æªĲ": 114939,
  "ĠDecomp": 62378,
  "ãģ«ãģ¤ãģĦãģ¦ãģ¯": 132004,
  "up": 454,
  "Ġattribute": 7035,
  "-transform": 32852,
  "æħ¢æħ¢åľ°": 111632,
  "manager": 13297,
  "Accordion": 71603,
  "Ġà¹Ģà¸ŀ": 126306,
  "ê±·": 144369,
  "ĠRocky": 47541,
  "_fa": 95864,
  "áĬķ": 146728,
  "ÙĩØ¯": 124837,
  "Ġxd": 79052,
  "Ġinfix": 88157,
  "Ġrays": 44120,
  "msp": 92545,
  "Ð¼Ð¸Ð½Ð¸ÑģÑĤ": 127793,
  "Ġinvoke": 19873,
  "åħ¬äº¤": 102540,
  "Ġelf": 40745,
  "-tank": 95028,
  "Ġbiased": 47661,
  "Ġuart": 46868,
  "(ne": 48405,
  "ĠwyÅĤÄħcznie": 141465,
  ".Pull": 97357,
  "ĠyapÄ±lmasÄ±": 138541,
  "-badge": 88076,
  "ë«¼": 146048,
  "Ġdiscontent": 90122,
  "Ġexplosives": 56309,
  "á´¢": 148302,
  "ÄŃ": 145760,
  "ÙģØ¹ÙĦ": 130029,
  "ðŁĶ±": 146615,
  "ĠNAND": 76457,
  "å½ĸ": 122559,
  "åĨľçī§": 112001,
  "æĤ²è§Ĥ": 117321,
  "amsung": 14441,
  "âĿĶ": 146480,
  "Portfolio": 66675,
  "à¸Ħà¸£à¸µ": 137136,
  "åĵģçīĮçļĦ": 107322,
  "ï´½": 151232,
  "ĠLate": 35831,
  "æĵįæİ§": 108536,
  "íŀĻ": 144983,
  "ĉstatic": 6977,
  "ĠArgs": 17693,
  "[X": 50044,
  "Ġcompetitions": 42582,
  "imagem": 84696,
  "à¹Ĥà¸ļà¸£à¸²à¸ĵ": 142120,
  "à¹Ģà¸ļà¸²": 135788,
  "ĠPRICE": 59052,
  "addOn": 58067,
  "Ġ×Ĵ×ĵ×ķ×ľ": 129251,
  "å¤§äºº": 105666,
  "Ġcomprehension": 61094,
  "ertype": 45069,
  "'field": 98326,
  ".backup": 98555,
  "et": 295,
  "memcpy": 81084,
  "ĠRig": 51532,
  "Ġdrinkers": 97876,
  "ĉexport": 59440,
  "ĠsÃ¸ker": 92744,
  "Ġiov": 98962,
  "-region": 60679,
  "_fc": 46506,
  "icontrol": 77006,
  "å¯¹åħ¶çľŁå®ŀ": 118427,
  "Ġ\"(": 11993,
  "<pair": 51307,
  "Pointer": 9084,
  "Ġcommissioned": 43124,
  "Ġbattalion": 90416,
  "ä¹ŁæĽ¾": 108875,
  "-Mail": 37513,
  ":error": 69195,
  "/report": 62385,
  "jon": 34165,
  "ĉar": 69340,
  "æ°¸": 99906,
  "ĉglobal": 18842,
  "Ġansible": 90719,
  "/helpers": 41426,
  "Ġappropriated": 86413,
  "ĠBack": 6841,
  "}.${": 77197,
  "Ġnutritious": 77116,
  "çļĦåľ°æĸ¹": 103958,
  "à¸ļà¸±à¸ĩà¸Ħà¸±à¸ļ": 140929,
  "/win": 97718,
  "à´Ł": 149537,
  "_blocking": 91449,
  "Buttons": 15924,
  "âķ¡": 147938,
  "olly": 8618,
  "ãįĳ": 148184,
  "-admin": 27225,
  "ãĢĤï¼Į": 37641,
  "?key": 89585,
  "TEGR": 68003,
  "ìĬ¤íĬ¸": 53189,
  "Ġunable": 11889,
  "Ġpaths": 12716,
  "èĲ¥ä¸ļ": 100566,
  "èµļéĴ±": 104518,
  "yny": 56404,
  "erialized": 67577,
  "ĠÅ¾e": 84774,
  "ĠrÃ©al": 58057,
  "Ġcross": 5312,
  "(setting": 75640,
  "æĬ¤": 99280,
  "æ¶¨": 99852,
  "à¹Ģà¸ŀà¸µà¸¢à¸ĩ": 126481,
  "Ġcasc": 74957,
  "(by": 32028,
  "tere": 54604,
  "Ġrout": 8242,
  "Ġfluctuations": 64549,
  "Ġfines": 33918,
  "\"Now": 82424,
  "æ¤Ģ": 122983,
  "ĠDoll": 38757,
  "ĠHawaii": 27521,
  "Ġ[]ĊĊĊ": 89238,
  "Ġtrucks": 26763,
  "Ġsclerosis": 90257,
  "_exist": 35906,
  "ĠRequestOptions": 82349,
  "äººå¤§å¸¸å§Ķ": 113067,
  "ActionButton": 43332,
  "Ġanalog": 23400,
  "ðĿĹ²": 146434,
  "Ġderived": 14257,
  "/action": 54765,
  "_PIX": 85372,
  "ç¤¾ä¼ļç§ĳåŃ¦": 113488,
  "-p": 2268,
  "ĠButterfly": 77720,
  "é¾Ĩ": 123176,
  "ĠÑĢÐµ": 124619,
  "Ġviolated": 33421,
  "Styles": 7016,
  "Ġracked": 99041,
  "Ġtratt": 92934,
  "å¢ŀå¼ºäºĨ": 107987,
  "ç¾Ĭæ¯Ľ": 116765,
  "Ġseldom": 55352,
  "-current": 44175,
  "Ġ{};": 52166,
  ".TypeString": 83236,
  "æĸ°éĹ»è®°èĢħ": 117330,
  "kf": 81869,
  "writes": 59079,
  "Were": 88453,
  "Ġthreaded": 66787,
  "ĠFer": 28462,
  "ĠCf": 89894,
  "<Test": 71273,
  "/main": 15351,
  "ç»¼åĲĪå®ŀåĬĽ": 114474,
  "Ġexcitement": 27262,
  "pressure": 45974,
  "_loss": 11193,
  "uib": 79623,
  "åıĳå¸ĥæĹ¶éĹ´": 107896,
  "Ratio": 22777,
  "ĠTÃ´i": 129718,
  "Conta": 97141,
  "é½": 99456,
  "ĠBrook": 15605,
  "ìĮĺ": 147556,
  ".wind": 88976,
  "ðĿĵ¼": 149297,
  "åįıåķĨ": 105493,
  "Svg": 63406,
  "Ġsieve": 74336,
  "ĠgÄ±da": 143678,
  "ĠAA": 28234,
  "ĠMeth": 56075,
  "isValid": 29192,
  "ĠÐ¼Ð¾Ð´ÐµÐ»Ð¸": 138082,
  "ĠAnxiety": 80369,
  "arti": 67541,
  "_deploy": 91890,
  "ĠBraves": 70677,
  "_Public": 73905,
  "ĠArm": 12990,
  "tÃ¶r": 130457,
  "ToFront": 91601,
  "ĠTer": 10127,
  "ĠGerÃ¤t": 136800,
  "æĿĢæīĭ": 109559,
  "ĠØºØ§ÙĦØ¨": 142328,
  "camatan": 71050,
  "ĠØŃØµ": 137982,
  "åħ©åĢĭ": 108435,
  "Ġartifacts": 35036,
  "ãģ£ãģ¦ãģĹãģ¾ãģĦãģ¾ãģĹãģŁ": 140726,
  "ì»µ": 144537,
  "Ġextr": 11482,
  "_histogram": 68564,
  "ëĪ¼": 149737,
  "ĠRates": 46976,
  "Ġsulla": 56970,
  "ä¸¤å¤§": 105736,
  "ĉĠĠĠĠĠĠĠĠĠĠĠĠĠ": 66526,
  "è¡Ĺéģĵ": 104079,
  "æĳ¸": 100871,
  "à¸Īà¸±à¸Ļà¸Ĺà¸£à¹Į": 136756,
  "ĠFUNCTIONS": 52164,
  "eliness": 54698,
  "ĠÐ¸Ñģ": 125109,
  "ĉsetState": 62190,
  "ĠĠĠĠĠĠĠĠĉĊ": 73196,
  "ĠKris": 52002,
  "ðŁĮĿ": 147613,
  "Fortunately": 71955,
  "Ġinval": 48044,
  "Ġauction": 21165,
  "(country": 55764,
  "classList": 33305,
  "(K": 16738,
  "mtree": 70422,
  "Ġvisible": 9434,
  "VEST": 70202,
  "ĠÐ¿Ñģ": 140581,
  "ĉdt": 97980,
  "ĠkeyCode": 64432,
  "iat": 10358,
  "ĠÃ¼nivers": 137761,
  "Snow": 62285,
  "æĪĲäº¤": 102574,
  "Ġvisually": 42295,
  "Ġsympathetic": 52364,
  "é½ĩ": 123789,
  "Checkpoint": 92688,
  "-board": 52855,
  "æĮĩåįĹ": 105866,
  "ĠÐ¿ÐµÑģ": 132415,
  "ĠRSS": 29274,
  "Ġdye": 53531,
  "×¡×§": 124445,
  "olÃ³gico": 133397,
  "Segments": 64813,
  "ataire": 65649,
  "]()Ċ": 36622,
  "trial": 47347,
  "Ġreaff": 72000,
  "ðĿĩĬ": 151296,
  "_tests": 32509,
  "//@": 36585,
  "ĠbulunduÄŁu": 135101,
  "ÙĦØ§Ùħ": 126880,
  "å¸ĤåĢ¼": 106900,
  "ĠOpportunity": 47279,
  "ĉCollection": 94120,
  "exp": 4580,
  "_curve": 43407,
  "ë¨": 124364,
  "ked": 47159,
  "æĮīéĴ®": 84184,
  "mutable": 30473,
  "ĠÄĳÃ¬nh": 128890,
  "æĢĽ": 119961,
  ".bed": 90346,
  "ĉCommand": 97493,
  "_ADV": 74438,
  "ãģĮãģ§ãģįãĤĭ": 134019,
  "ä¼Ĺ": 99410,
  "Ġrecursively": 52847,
  "Sector": 68188,
  "ĠPetroleum": 71926,
  "à¸ªà¸łà¸²": 140128,
  "Ġclickable": 85563,
  "ificance": 99004,
  "ented": 15864,
  "_timeout": 20537,
  "ðŁ¦ĥ": 149953,
  "-pt": 96051,
  "ĠDuck": 45770,
  "Ġyapt": 125801,
  "ĠsÄĥ": 28994,
  "Cells": 20857,
  "Ġautop": 71158,
  "Ġ×Ľ×ª×ĳ": 129416,
  "Publisher": 34550,
  "âĽ": 123947,
  "âı¤": 149658,
  "à¸£à¸±à¸ģ": 124854,
  "ĠTamil": 43783,
  "ĠØ§ÙĦØ·Ø±ÙĬÙĤ": 132866,
  "æ»¥": 103691,
  "äºīå¤º": 108477,
  "ĠJedi": 40395,
  "requestCode": 74535,
  "Coffee": 82280,
  "åĩºå¤Ħ": 103714,
  "Invoice": 34674,
  "ĠSingh": 26894,
  "periments": 49632,
  "Ä±lmÄ±ÅŁ": 133210,
  "Ġverg": 37801,
  "§è¡Į": 58522,
  "Ġshoved": 82098,
  "ĠValentine": 38769,
  "ìĿį": 144257,
  "Ġà¸ģà¸¸à¸¡à¸łà¸²à¸ŀà¸±à¸Ļà¸ĺà¹Į": 143212,
  "Ð¿ÑĢÐ¸": 126461,
  "æķĳåĬ©": 106298,
  "(Console": 33645,
  ".with": 18164,
  "Ġnosotros": 67581,
  "é²ķ": 123370,
  "Ã©tr": 142754,
  "Ġpredefined": 63062,
  "Ġrecruitment": 33002,
  "_ass": 12083,
  "(bus": 60872,
  "xAA": 60051,
  "useum": 11509,
  "æ¬º": 100994,
  "åŀĮ": 120024,
  "ĠsÃ³lo": 52188,
  "ĠÄĳoÃ¡n": 136149,
  "Ġêµīìŀ¥íŀĪ": 142662,
  "ĠSigns": 58024,
  "âķı": 150692,
  "Ġkurz": 70984,
  "Ġincre": 2281,
  ":Add": 54676,
  "ĠëĮ": 143241,
  "å½·": 119723,
  "_NULL": 18119,
  "macros": 86398,
  "Ø§Ø³Øª": 124341,
  "Ġurb": 77710,
  "Ġà¸Īà¸°": 129515,
  "ãĤ«ãĥ«": 132550,
  "æĹŀ": 123703,
  "FileType": 71873,
  "Ġodio": 86734,
  "Ġcortex": 48270,
  "ĠProgrammer": 88024,
  "Ġdrawers": 61607,
  "ìĺ³": 144348,
  "emoji": 37523,
  "Separ": 14492,
  "Ġremix": 56366,
  "_ins": 34386,
  "Ġconstructed": 20346,
  "ĠRaleigh": 64083,
  "Reflection": 44238,
  "pen": 2752,
  "ĠØ§ÙĦØ¹Ø§Ùħ": 128586,
  "Ġnegro": 61733,
  "Ġ×§×Ļ×ĳ×ľ": 132360,
  "Ġspotting": 89219,
  "Ġcrossword": 91396,
  "bial": 46959,
  "_cpus": 90673,
  "ĠIMDb": 86401,
  "åĢ¡å¯¼": 106373,
  ".tv": 14485,
  "ĠFollowers": 85550,
  ".display": 8181,
  "ìĦ¯": 144191,
  "ĠPresenter": 96223,
  "ðŁĵĤ": 147729,
  "PerPixel": 92141,
  "Ġentidad": 85808,
  "ridged": 79128,
  "ç®¬": 121454,
  "å¿łå®ŀ": 114538,
  "Ġseper": 48354,
  "Ġprofiler": 87497,
  "`}Ċ": 53136,
  "Ġstages": 17628,
  "Ġhorrors": 69518,
  "DEVICE": 41751,
  "è½»å¾®": 112578,
  "Communication": 65411,
  "emia": 21925,
  "Ġintolerance": 74331,
  "WithOptions": 74238,
  "ç¨ĥ": 120979,
  "èļ¯": 119407,
  "Ġofficial": 3946,
  "Ġseu": 20009,
  "è¯Ħæµĭ": 115163,
  "Ġmuestra": 70587,
  "ï½¥ï½¥ï½¥": 142261,
  "ä¸ĩåįļ": 111216,
  "ĠPs": 11802,
  "ĠTXT": 72429,
  "èĬĤæ°´": 113886,
  "å¾ĹäºĨ": 107307,
  "×ľ×Ķ": 123990,
  "Ġpadx": 54822,
  "çĤ¸": 100893,
  "itor": 1919,
  "-viol": 75727,
  "çıŃç»Ħ": 117995,
  "ĠCumberland": 91682,
  "Ġ×ł×¢": 126566,
  "×©×ŀ×Ĺ×Ķ": 138255,
  "ocate": 81515,
  "Ġdone": 2814,
  "ä½įåĪĹ": 111202,
  "-human": 68995,
  "rens": 77340,
  "agy": 81670,
  "ãģ§ãģ¯": 76081,
  "Ġhap": 45800,
  "ĠÑĤÐµÐ¿ÐµÑĢÑĮ": 134475,
  "-about": 68105,
  "Ġgrou": 93768,
  "portrait": 95641,
  "mental": 92121,
  "Fee": 41941,
  "ðŁĴĳ": 147315,
  "ĠAssemblyTrademark": 95827,
  "Ġnodes": 7798,
  "ampaign": 18168,
  ".tech": 63504,
  "ðŁĩ±": 145616,
  "Birthday": 76561,
  "ĠÐ§": 124713,
  "×¦×ŀ×Ĺ": 135657,
  "çŁ¶": 103612,
  "æ²ħ": 119746,
  "ĠFloors": 96405,
  "Ġdragged": 37147,
  "ĠMind": 22904,
  "á»ł": 144763,
  "Ġmailed": 75210,
  "æıĲèµ·": 106787,
  "éĨ«": 100616,
  "æĽ¾": 99798,
  "ĠKT": 77461,
  "Ġlcm": 86079,
  "Ġcondol": 69460,
  "ĠTide": 71016,
  "conference": 78490,
  "Ġwalker": 62524,
  "Ġaltogether": 30055,
  "Ġmau": 58914,
  ",:,": 24541,
  "Ġchart": 9487,
  "-debug": 71051,
  "_ACL": 97627,
  "Ġretval": 22625,
  "ØµØ§Ø¯": 130248,
  "ãģ¾ãģ¾": 127081,
  "Ġelaborate": 35967,
  "ĠMaking": 24288,
  "ĠÑģÑĭ": 128167,
  "Ġ\"_\"": 32725,
  "Ġsup": 1026,
  "Ġusernames": 82051,
  ".Com": 2961,
  "ãĥ¦ãĥ¼ãĤ¶": 137346,
  "Ġjournalists": 22532,
  "Ä±": 3777,
  "ðŁĴı": 147237,
  "ãģĭãģ©ãģĨ": 134494,
  ":k": 57071,
  "ðĿĴ¿": 151312,
  "utting": 73981,
  "ĠÐ¾ÑĢÐ³Ð°Ð½Ð¸Ð·Ð°ÑĨÐ¸Ð¸": 133248,
  "enthal": 77175,
  "Ġswearing": 90681,
  "ars": 1561,
  "ĠAlpine": 81713,
  "ãĤ³ãĥ¼ãĤ¹": 133895,
  "ĠÙĨÙĤ": 142402,
  "dbContext": 69762,
  "ðŁĩ¨": 145793,
  ":j": 57558,
  "æŀľæ±ģ": 116107,
  "ĠMun": 27882,
  "umont": 89817,
  "à¸Ńà¸Ļà¸¸à¸įà¸²": 136811,
  "_IO": 19790,
  "èĹ": 99442,
  "ðŁĲ¹": 148714,
  "Ġfich": 28975,
  "Ġsar": 28047,
  "áĽŁ": 149580,
  "Ġgiáº£i": 128486,
  "ĠRESOURCE": 76065,
  "æ²³æµģåŁŁ": 115354,
  ".nav": 24189,
  "Ġshar": 25626,
  "ĠSpaÃŁ": 140748,
  "à¸įà¸µà¹Īà¸Ľà¸¸": 132009,
  "áº£nh": 126265,
  "ĠLCS": 83868,
  "çĭĻ": 103886,
  "ĠObjective": 54289,
  "Ġelectr": 42806,
  "atr": 60978,
  "Ġtemporada": 81461,
  "ĠAircraft": 58845,
  "åĴİ": 119931,
  "áİ¥": 148521,
  "ëĪ": 124049,
  "Ġidx": 7187,
  "æĦıæĥ³ä¸įåĪ°": 117245,
  "Dropdown": 24975,
  "Ġterug": 89501,
  "VarChar": 38266,
  "â½¤": 147789,
  "(Web": 67240,
  "Elements": 11868,
  "ĠdiffÃ©rence": 143108,
  "Ġtherefore": 8916,
  "\\\"\\": 22245,
  "âĨ¿": 149324,
  "çļĦå¸®åĬ©ä¸ĭ": 116212,
  "ãģ§ãģĤãĤįãģĨ": 142401,
  "olecule": 54169,
  "_fecha": 72517,
  "ĠìĤ¬ëŀĳ": 132488,
  "Î±": 18945,
  "çļĦå®ŀéĻħ": 108081,
  "ĠBrewers": 80411,
  "ä¹Łæ²¡æľī": 102114,
  "_optimizer": 68168,
  "ĠLanguage": 11434,
  "Ġfade": 15016,
  "è¿ĻéĩĮéĿ¢": 114780,
  "above": 48432,
  "çĶ³è¯ī": 118202,
  "ĠBritann": 97420,
  "ðŁįĸ": 146995,
  "èīħ": 123216,
  "Ġextingu": 55707,
  "æ»¥çĶ¨": 114499,
  "ĠMaduro": 77702,
  "Ġreporters": 19040,
  "audio": 16736,
  "ĠJr": 15640,
  "errno": 26379,
  "ĠonStop": 85230,
  "å±±ä¸ľçľģ": 105028,
  "urette": 72143,
  "Ġthread": 4516,
  "easy": 45022,
  "LA": 17845,
  "èĮ«": 100619,
  "aning": 43059,
  "Ġcleans": 34194,
  "æĭ¤": 119799,
  "riages": 37032,
  "allowed": 20967,
  "imin": 60234,
  "ĠFilm": 16631,
  "æ±²åıĸ": 113831,
  "Ð³ÑĢ": 124672,
  "áĬł": 147068,
  "_sender": 54356,
  "ĠÐ¿ÑĢÐ°ÐºÑĤÐ¸": 135083,
  "bundles": 86660,
  "Ġsauna": 46858,
  "Ġjdbc": 85902,
  "å¥³è¶³": 115812,
  "âĢĶall": 86147,
  "(RE": 43202,
  "ĠZombies": 88837,
  "_analysis": 42682,
  "ä¹ĭéģĵ": 107578,
  "ĠÐ¼ÐµÑģÑıÑĨÐµÐ²": 138693,
  "Ãªm": 38830,
  "Arena": 93937,
  "ðŁĨļ": 147073,
  "(bg": 59360,
  "Terrain": 85020,
  "ĠyukarÄ±": 142726,
  "Ġowning": 40277,
  "Ġblister": 80692,
  "gage": 14943,
  "ĉall": 50960,
  "Ġpact": 59721,
  "Utils": 4209,
  "(CL": 52991,
  "åŁİä¹¡å±ħæ°ĳ": 116863,
  "Ġamendments": 40593,
  "Ġsá»Ł": 128760,
  "?p": 90142,
  "made": 26912,
  "ĠSalv": 30966,
  "enders": 14506,
  "æĢİä¹Īçľĭ": 111208,
  "Ġnan": 20021,
  "(round": 32356,
  "à¸ĭà¸¶à¹Īà¸ĩ": 125458,
  "Ġraided": 78396,
  "×©×ķ×ľ×Ĺ×Ł": 139858,
  "à¸ŀà¸±à¸ģ": 125294,
  "_actor": 54818,
  "ãģ²ãģ¨ãĤĬ": 141463,
  "à¸īà¸ļ": 135464,
  "×ĳ×ĵ×Ļ×§": 128157,
  "Paul": 25300,
  "à¸Ĥà¸ĵà¸°à¸Ĺà¸µà¹Ī": 128119,
  "ä¸ĥæľĪ": 114580,
  "yrÄ±ca": 127368,
  "Ġpraises": 86078,
  "ð¡Ī½": 149353,
  ".NoArgsConstructor": 72393,
  "argin": 2904,
  "Ġilleg": 28967,
  "(cx": 45752,
  "èĲĬ": 117458,
  "ĠÑĥÑĢÐ¾Ð²Ð½Ðµ": 137485,
  "Ġply": 38573,
  "ãĤĪãĤĬãĤĤ": 130464,
  "Ø®Ø¶Ø±": 135417,
  "_read": 6443,
  "Ġipad": 80713,
  "ĠÃ¨": 11422,
  "ĠÐ²Ð¾Ð·Ð¼Ð¾Ð¶Ð½Ð¾ÑģÑĤÐ¸": 137168,
  "Ġdebtor": 93762,
  "ä¸ĵåĳĺ": 116161,
  "Buffer": 4095,
  "Ġgá»£i": 143252,
  "Ġë³´ê¸°": 138540,
  "ĠLumpur": 86244,
  "à¹Ģà¸ª": 124043,
  "çŁŃçº¿": 110379,
  "ĉactual": 88814,
  "expl": 29892,
  "Ġrendez": 65551,
  "ĠÑĤÑĥÑĢÐ¸ÑģÑĤ": 141635,
  "(uuid": 41458,
  "clr": 60947,
  "Ġunchecked": 53191,
  "ichage": 72165,
  "ĠBashar": 70260,
  "(Employee": 76919,
  "Ġpowers": 13430,
  "ĠAnime": 51115,
  "Ġconsc": 13588,
  "ç»ī": 120005,
  "Ġsurfaced": 57546,
  "å®ŀçī©": 111021,
  "ĠBernard": 34252,
  "ĠNodeList": 98711,
  "(-(": 65667,
  "æĹİ": 120760,
  "åīįçŀ»": 103759,
  "à¸¡à¸±à¹ī": 143403,
  "limit": 9506,
  "')]Ċ": 49624,
  "Ġ;;": 13667,
  "_fixture": 74409,
  "å¤§æ°Ķ": 105797,
  "ĠÐ½Ð¸ÐºÑĤÐ¾": 142084,
  "çĽĸ": 99758,
  "ä¸įä»ħä»ħ": 102803,
  "å¿ĥæĦ¿": 113728,
  "æĹłæ³ķ": 101068,
  "Aff": 25841,
  "Ð±ÑĥÑĢ": 127773,
  "à¹ģà¸Ĥà¹ĩ": 127932,
  "ĠEstablished": 86250,
  ".categories": 42436,
  "ĠsetSearch": 85682,
  "ĠWillis": 66642,
  "¸": 116,
  "èĪĲ": 120416,
  "$rows": 87889,
  "ĠÐ¸Ð³ÑĢÐ°ÑĤÑĮ": 135242,
  "ĠREPRESENT": 97122,
  "ĠÐºÐ°Ð·Ð¸Ð½Ð¾": 131047,
  ".idx": 51806,
  "ÙĬØ¡": 135425,
  "Ð¸ÑĩÐµÑģÐºÐ¸Ð¹": 131195,
  "ĠWalton": 70409,
  "kj": 92697,
  "å®Ī": 99821,
  "Ġmycket": 79761,
  "_SR": 48163,
  "ĠsourceMappingURL": 44695,
  "ĠIdentify": 64547,
  "Ġslag": 66591,
  "ĠExped": 63312,
  "Ð¿Ð°Ð½": 130850,
  "Ġimpunity": 97670,
  "å¥łå®ļäºĨ": 108438,
  "ĠQue": 9418,
  ".B": 1785,
  "fillna": 95096,
  "Ø³Ùī": 132791,
  "ðŁĺĦ": 144741,
  "Ġmodules": 13454,
  "ãģ¦ãģĹãģ¾ãģ£ãģ¦": 141603,
  ".mapper": 34976,
  "×¤×¨×¡×Ŀ": 134935,
  "ologna": 65790,
  "ullets": 65430,
  "ÑĨÐ°": 86894,
  "Ġthiáº¿t": 128422,
  "Ġebp": 87307,
  "$c": 29835,
  "kon": 39537,
  "nqu": 139033,
  "Hom": 49642,
  "å¸ĥç½®": 106336,
  "×ŀ×Ĳ×ķ×Ĺ×¨": 138610,
  "Ġrichtig": 65681,
  "éģ¸ãģ³": 136163,
  "(idx": 19778,
  "ĠMainPage": 70076,
  "ĠStops": 88973,
  ",P": 27394,
  "-range": 30508,
  "Ġbrittle": 94649,
  "è¯¦æĥħ": 89656,
  "äº©": 102131,
  "ÕĦ": 147446,
  "_UNIX": 82754,
  "ĠÄĳá»©c": 138063,
  "ĠSET": 9019,
  "Regs": 84470,
  "×ĳ×ľ×¢": 143324,
  ".cornerRadius": 42007,
  ".inject": 24143,
  ".bytes": 42697,
  ".indices": 57928,
  "Ġâľĵ": 52375,
  "Username": 11115,
  "DataReader": 32707,
  "Ġ'čĊ": 26861,
  "football": 84336,
  "req": 2958,
  "(Person": 58174,
  ".dm": 80083,
  "ä¿ŀ": 109775,
  "á¸£": 147684,
  "(chat": 45438,
  "å¤ļæł·åĮĸ": 108511,
  "ã³¬": 151430,
  "çĶŁæĢģ": 100171,
  "Ò¨": 149502,
  "stit": 3696,
  "contri": 12855,
  "_chat": 35053,
  "ä½ıæĪ·": 113901,
  "ĠÃ¶zelliÄŁi": 139783,
  "handles": 43931,
  ".Compute": 89237,
  "here": 6739,
  "æĸ°åŁİ": 105856,
  "NV": 36326,
  "ë¦": 20098,
  "Rather": 63902,
  "ĠImprovement": 52651,
  "å®¹åĻ¨": 109300,
  "Ġvem": 97062,
  "Ð¼Ñĭ": 125153,
  "Ġequals": 16819,
  "ENCE": 10150,
  "match": 6347,
  "×ª×§×ĳ×ľ": 135127,
  ".Categories": 88159,
  "Ġwarrant": 7091,
  "ïºº": 146012,
  "ĠVX": 78177,
  "ĠSan": 5836,
  "Ra": 55535,
  "_toggle": 48860,
  "Ġeconomy": 8584,
  "Ġalmond": 62068,
  "Ġmagg": 87899,
  "Ġgrids": 56349,
  "Ġaccommodations": 54613,
  "kÃ¼": 129056,
  "ebx": 81363,
  "ĠÐĳÐ°": 132223,
  "æľīäºĽ": 101895,
  "coat": 67412,
  "Ġcombo": 22734,
  "ĠiNdEx": 90443,
  "ĠCasinos": 76904,
  "Ġgrasp": 33377,
  "ìĤ¿": 145318,
  "å¤ĦçĲĨ": 54542,
  "Ġ×¦×¤×ķ": 138286,
  "è§£åĨ³": 100638,
  "Ġveterinarian": 81240,
  "íķĺìĭł": 135784,
  "Ð²ÐµÐ´ÑĥÑī": 142632,
  "LineStyle": 80533,
  "Ġhaunt": 83658,
  "Ġwaiter": 67169,
  "ĠìĤ¬ìĭ¤": 130037,
  "ðŁĵĶ": 148541,
  "ductory": 50338,
  "\"><?": 8067,
  "Tables": 21670,
  "â¯Ī": 150740,
  "ëĭ¹": 64795,
  "_callable": 64940,
  "ÐŁÐµÑĤÐµÑĢÐ±ÑĥÑĢÐ³": 135875,
  "åĤ¨éĩı": 118196,
  "ĠblackColor": 75554,
  "è¢«å®³": 116840,
  "ĠÐ·Ð°Ð½": 135674,
  ".mean": 18711,
  "(mouse": 52154,
  "ç®¡çĲĨèĢħ": 110347,
  "ç¥ģ": 110242,
  "Aside": 69988,
  "Ġtheta": 18526,
  "Ġtenth": 55666,
  "Ġunc": 20815,
  "×ª×ķ×¦×Ĳ×ķ×ª": 133649,
  "ĠRTC": 35047,
  "Ġgaping": 98936,
  "ç¤¾ä¼ļåĮĸ": 114848,
  "Ġwelcome": 10565,
  "ĠMÃ¼dÃ¼": 137463,
  "æīĭåĬ¨": 110867,
  "ĉemail": 57549,
  ".Caption": 40351,
  "ugas": 57831,
  "gly": 22945,
  "å¾®å¦Ļ": 118411,
  "ĠDateTimeKind": 96209,
  "ontvangst": 53209,
  "íĤ¹": 144120,
  ".selector": 59111,
  ".visitMethodInsn": 82356,
  ".');Ċ": 17118,
  "}else": 7825,
  "æł©": 120336,
  "_->": 10462,
  "ItemSelectedListener": 57972,
  "grunt": 61224,
  "ÙħØ·ÙĦÙĪØ¨": 135848,
  "rick": 12649,
  "æ²¡éĴ±": 114430,
  "Ġvotre": 14918,
  "ĉlib": 93459,
  "åºĹåĬłçĽŁ": 118333,
  "ĠÐ¿ÑĢÐ¸Ñĩ": 131207,
  "Ë¯": 149491,
  "åĲĪå¹¶": 106080,
  "è®®è®º": 112098,
  "éĻ³": 106894,
  "ĠSenators": 53718,
  "ãĻ": 101873,
  "è¯ģçĽĳä¼ļ": 106672,
  "segments": 56829,
  "åŁ¹è®ŃæľºæŀĦ": 110287,
  "åĩłä¸ªäºº": 112285,
  "Ġaged": 19749,
  "ĠëĪĦêµ¬": 138660,
  "ĠDebbie": 63389,
  "Ġvalign": 23858,
  "fps": 43428,
  "ĠHentai": 92042,
  "ence": 763,
  "GRAM": 22968,
  "åĺīå®¾": 105657,
  "Ġvocab": 23820,
  "rootScope": 23553,
  "ĠÐ½ÐµÐ¾Ð±ÑħÐ¾Ð´Ð¸Ð¼Ð¾ÑģÑĤÐ¸": 142280,
  "ĠWaitForSeconds": 44878,
  "$html": 32366,
  "{k": 69094,
  "Clusters": 94992,
  "Ġ×Ķ×ĸ×Ĳ×ª": 134471,
  "èĳĳ": 120873,
  "æĺ¯æĪĳ": 104927,
  "ĠRuntimeObject": 53659,
  "èĻ±": 119998,
  "×Ĳ×ŀ×ł×ķ×ª": 134457,
  "ç»ĿæľĽ": 110018,
  "ĠWagner": 51375,
  "ĠPai": 87514,
  "á½Ĳ": 145465,
  "Ġreturn": 470,
  "role": 5778,
  ">>;Ċ": 77943,
  "Explorer": 70916,
  "registr": 48464,
  "Ġmaka": 82277,
  "ĠLE": 11148,
  "ĠTechnical": 26668,
  "dock": 77055,
  "Ã£": 3202,
  "ICIAL": 82904,
  "å·²äºİ": 112420,
  "ä¸ĢçĤ¹": 100380,
  "èħº": 101002,
  "ĠProduct": 5643,
  "æµģæ°´": 107991,
  "å°±è§īå¾Ĺ": 115119,
  "ĠMiddleton": 91614,
  "Ġcrane": 72947,
  "interp": 63721,
  "ĠEis": 96880,
  "ç¦ıå½©": 116453,
  "ãĤ·ãĥ³ãĥĹ": 143295,
  "maze": 97950,
  "Ġbroader": 26829,
  "ĠOpinion": 59667,
  "æ¢¾": 122782,
  "àłį": 150407,
  ".ref": 11053,
  "ì¡¸": 144066,
  "ĠĠčĊčĊ": 72745,
  "å¼ĢæºĲ": 115462,
  ".club": 97646,
  "ter": 465,
  "Ġsesame": 91123,
  "ÑģÑĤÐ°Ð²Ð¸Ð»": 138232,
  "éķ¶": 103872,
  "Ġgoes": 5780,
  "ëĭ¥": 144140,
  "iltr": 36604,
  "æ´»åĬ¨ä¸Ń": 107084,
  "éĻªåĲĮ": 108143,
  "compatible": 34842,
  "_fr": 41537,
  "nd": 303,
  "ëįĺ": 125615,
  "ðŁıĬ": 146283,
  "ĠJOHN": 75175,
  "ÙģØ§ÙĦ": 133458,
  "Ġloro": 47093,
  "æ¥Ń": 99711,
  "ĠÑĥÑĩÐ¸ÑĤÑĭÐ²Ð°": 141816,
  "-eight": 69715,
  "âĤ±": 146780,
  "ĠGus": 81379,
  "ĠPathfinder": 84181,
  "Ð½Ð¾Ð¼Ñĥ": 130290,
  "Ġreorder": 83184,
  "ĠGE": 29857,
  ";;ĊĊ": 72931,
  ".chain": 52041,
  "åĥ¹æł¼": 112664,
  ".rm": 89301,
  "æĿ¨æ¬¢": 114622,
  "/UIKit": 23679,
  "ymbol": 4001,
  "issing": 13577,
  "ðĿĸĽ": 151337,
  "Ġalm": 89484,
  "é¹": 99174,
  "åĵĶ": 120113,
  "Ġfixation": 83762,
  "ç®ĢçĽ´æĺ¯": 114205,
  "ĠKatherine": 61326,
  "Ġchats": 48526,
  "Ġasym": 53295,
  "ographed": 90573,
  "ãģĿãĤĮãģ¯": 130146,
  "(\"{": 13976,
  "ĠLaravel": 64206,
  "completed": 34735,
  "åįķè½¦": 103583,
  "çİ»": 102139,
  "/exec": 90905,
  "×Ķ×ĸ×ĵ×ŀ×ł×ķ×ª": 139411,
  "Ġpoids": 96318,
  "ç¾İåĨĽ": 109558,
  "ä¾ĽåºĶéĵ¾": 104861,
  "isman": 62570,
  "ĠÐ¼ÐµÑģÑı": 127337,
  "Ġglyph": 32150,
  "aryl": 77808,
  "çģ¾éļ¾": 109893,
  "ä¸įåľ¨": 102972,
  "ÙĪØ§ØµÙĦ": 126102,
  "æŀľå®ŀ": 111856,
  "ð«į¯": 122899,
  "Ġoutsourcing": 74692,
  "ĠDiscovery": 38093,
  "ØŃÙĬÙĨ": 133955,
  "Begin": 11135,
  "Ġsv": 13559,
  "ĠEase": 94021,
  "Ġobstacles": 31016,
  "æķĪ": 59355,
  "Ġkitt": 66612,
  ".Cor": 63560,
  "åĲīåĪ©": 108738,
  "ïº¨": 144728,
  "è½¦ä¼ģ": 111532,
  "Ġpussy": 16189,
  "ç¨ĢåľŁ": 113921,
  "ĉBOOST": 72550,
  "els": 2010,
  "ĠKeywords": 55695,
  "è¦ĨçĽĸ": 100795,
  "Reload": 50035,
  "_ratio": 19917,
  "à¼ķ": 150056,
  "ç¢ĥ": 123166,
  "ĠCORE": 50183,
  "ãģ«åħ¥ãģ£ãģ¦": 137280,
  "Give": 35127,
  "google": 17485,
  "æĬĺå°Ħ": 116465,
  ".btnCancel": 55278,
  "SIM": 46616,
  "ĠTel": 22836,
  "ĠCÃ¢mara": 138956,
  "Ġpersonnel": 16849,
  "ìĦľë¹ĦìĬ¤": 141556,
  "èķŀ": 121567,
  "Ø¥Ø¬Ø±Ø§Ø¡Ø§Øª": 134042,
  "Ġsuf": 55768,
  "åħĳçİ°": 113150,
  "PEndPoint": 91761,
  "Ġcatast": 34105,
  "Ġwykon": 98161,
  "çĽ¡": 106360,
  "_info": 3109,
  "DataStream": 88062,
  "ĠÐ¿Ð¾Ð»ÑĮÐ·": 127417,
  "é¡ĺæĦı": 112591,
  "Ġstart": 1191,
  "Oi": 81096,
  "ĠÐ¼ÐµÑģÑıÑĨ": 132698,
  "ĠSimple": 8993,
  "Ġ×ŀ×Ķ×ŀ×¢×¨×Ľ×ª": 142998,
  "ĠIDictionary": 59331,
  "_SLOT": 53047,
  "...',Ċ": 74740,
  "ĠFax": 55364,
  "]<<\"": 66747,
  "cÃ³": 129133,
  "entar": 79680,
  "nÄ±zÄ±": 134502,
  "Ġpouvoir": 67126,
  "ĠAttack": 20790,
  "ffen": 25651,
  "Ġstark": 37146,
  "java": 10042,
  "Ġtelescope": 55825,
  "áĪŀ": 150489,
  "Added": 19337,
  "Ġstaggering": 54844,
  "ĠØ¨Øª": 126805,
  "LIST": 22852,
  "Ġlá»Ńa": 136337,
  "Chars": 32516,
  "tw": 15560,
  "åıįé¦Ī": 102468,
  "ä¸»ä»»": 100465,
  "éķŀ": 121780,
  "âĢ¦ĊĊĊ": 65579,
  "/examples": 67020,
  "ðŁĵİ": 146709,
  "ĠÐ¼ÐµÑĢÐ¾Ð¿ÑĢÐ¸": 143781,
  "(loader": 82511,
  "íģħ": 148928,
  "Tau": 92713,
  "ì¼ĵ": 144213,
  "ĠnastÄĻpnie": 141209,
  "ĠSceneManager": 53592,
  "sales": 29041,
  "ĠUltr": 66857,
  "ĠISS": 36396,
  "$(\"": 44490,
  "æ±ºãĤģ": 132102,
  "ĠSniper": 75054,
  "èĲ±": 116052,
  "è¯įæĿ¡": 114841,
  "Ġ...)": 46914,
  "meer": 89925,
  "Ġapplied": 9251,
  "æµ·ä¸Ĭ": 106150,
  "Packet": 16679,
  "_warning": 38395,
  "Ġbiod": 55494,
  ".segments": 95331,
  "âķŀ": 150693,
  "Ġestimated": 12943,
  "æĪ´": 100469,
  "icer": 12999,
  "CurrentUser": 78257,
  "ĠMOST": 79099,
  "Block": 4713,
  "ĠFiji": 85096,
  "×§×¨×ĳ": 127308,
  "×ĳ×ķ": 128661,
  "Validators": 31748,
  "ĠCharg": 27617,
  "æĽ¿ãģĪ": 132317,
  "éķĵ": 121635,
  "ĠYoung": 13263,
  "IFIER": 26965,
  "åıĳè¨Ģäºº": 110395,
  "Ġcot": 47581,
  "ĠRevenue": 37393,
  "æĬĬä»ĸ": 106465,
  "ognition": 30656,
  "ĠDex": 72642,
  "ðŁĳ¥": 147726,
  "ĠSummary": 21517,
  "ĠJahres": 97748,
  "Ġ×Ĳ×Ļ×©×Ļ×ª": 135794,
  "-Ta": 43095,
  "åĪĨéħį": 104675,
  "Ġcommitment": 15155,
  "_used": 27803,
  "ĠMIT": 14865,
  "ï²£": 148681,
  "ĠClearly": 53404,
  "Äħd": 61051,
  "ullivan": 36041,
  "æ±ł": 100230,
  "attendance": 62625,
  "####": 820,
  "Ġnc": 25126,
  ".DeepEqual": 94750,
  "height": 2563,
  "instagram": 46266,
  "ĠDell": 38324,
  "oci": 2119,
  "onds": 49958,
  ":self": 10899,
  "Ġsagen": 73689,
  "_pages": 21655,
  "'},": 24731,
  "?[": 60764,
  "Ġsatisfy": 26553,
  "-plane": 89549,
  "Ġtus": 40684,
  "åħ°èĬ±": 115888,
  "ä¸įè¿ľå¤Ħ": 117222,
  "Tiny": 85693,
  "åĪ": 6564,
  "ÑıÑīÐ¸Ñħ": 139903,
  "vie": 63419,
  "å¸ĤæĶ¿åºľ": 104836,
  "umberland": 68759,
  "â¾Ĭ": 149391,
  "Ġpatrol": 32522,
  "EXIST": 92827,
  "ç²¾çģµ": 109387,
  ".createParallelGroup": 18439,
  "ĠSch": 5016,
  "Ġbuoy": 74620,
  ".getPage": 62063,
  "-active": 31244,
  "Ġlayoffs": 98822,
  "Ġtheory": 10126,
  "×ŀ×Ļ×ª×Ļ": 127807,
  "å±Ĥæ¬¡": 100920,
  "ĠKrishna": 79309,
  "'].'": 16956,
  "'S": 13272,
  "ĠREF": 38029,
  "é£ŁçĶ¨": 105086,
  "']].": 79139,
  ".level": 20099,
  "×ŀ×Ĺ×ľ": 142694,
  "èĮĥ": 99453,
  "Ġevasion": 76732,
  "Ġé»ĺè®¤": 80546,
  "Ġcessation": 82360,
  "ĠEquipment": 20236,
  "Ġinstallment": 46544,
  "Ġ×¢×ĳ×ķ×ĵ×ª": 139619,
  "åı£è¯Ń": 113113,
  "release": 22998,
  "(locale": 69016,
  ".Bot": 82775,
  "_HEX": 86502,
  "ĠKontakt": 65608,
  "à¹ģà¸ľà¹Īà¸Ļ": 134554,
  "planation": 35890,
  "äººæ°Ķ": 105784,
  "ocomplete": 20104,
  "ãĥ¼ãĤ¸": 77667,
  "posit": 2724,
  "à¹ģà¸¡à¸Ļ": 138382,
  "Ini": 43325,
  "Ġsemble": 96387,
  "Factor": 20661,
  "è¡Įãģı": 133998,
  "agged": 96476,
  "Ø¨Ø®": 138240,
  "Ġshouldn": 13133,
  "é«ĺæł¡": 104127,
  "Ġ×ľ×¦×Ļ×Ļ×Ł": 140066,
  "ĠApplied": 42508,
  "ĠExpr": 28819,
  "/email": 61649,
  "å¦«": 119780,
  "ï±ģ": 151211,
  "Ġstaples": 86829,
  "çĺĹ": 123387,
  "Ġentirely": 11368,
  "Ġwordt": 40260,
  "this": 574,
  "è£°": 121324,
  "Ġinici": 44023,
  "([[": 27119,
  "áĭĵ": 149238,
  "titles": 34523,
  "æıŃæĻĵ": 112640,
  "Ġhorizontally": 58888,
  "Ġlowes": 96827,
  "Ġunmanned": 87840,
  "ĠÙħØŃÙħÙĪØ¯": 139812,
  "_TRA": 39096,
  ".gca": 94903,
  "/../": 78380,
  "ĠØ§ÙĦÙħØ§ÙĦÙĬØ©": 132071,
  "_issue": 53340,
  "å¸ĪçĪ¶": 107575,
  "èħ¹éĥ¨": 110151,
  "ÑĩÐ¸Ð²": 135236,
  "tober": 52144,
  "!\");Ċ": 11142,
  "_GENERAL": 65336,
  "_='": 88262,
  "lag": 13363,
  "ä¾¿æ°ĳ": 113410,
  "Cum": 85805,
  "æºī": 103595,
  "Ġvisual": 9124,
  "åīįåĪĹèħº": 116019,
  "ÑģÑĤÑĢÑĥÐºÑĤÐ¾ÑĢ": 88310,
  "Ġbuá»ĵn": 136100,
  "Ġscent": 40366,
  "à¸ļà¸±à¸Ļà¹Ģà¸Ĺà¸´à¸ĩ": 141394,
  "Ġ&": 609,
  "à¸£à¸°à¸¢à¸°à¹Ģà¸§à¸¥à¸²": 139756,
  "Approval": 90107,
  "å²©": 102137,
  "ç¶": 99324,
  "mse": 96582,
  "å®¡æł¸": 90851,
  "ĠROOM": 57948,
  "IODevice": 72425,
  "Ð¼ÐµÐ´Ð¸ÑĨÐ¸Ð½": 136244,
  "ÙħÙĤØ§Ø±": 139285,
  "_associ": 58665,
  "Ġspecialize": 47344,
  "Ġperch": 41883,
  "çľģæĶ¿åºľ": 106892,
  "ĠNhÃł": 129645,
  "Ġchiáº¿u": 135714,
  "åı¯ä»¥éĢļè¿ĩ": 105125,
  "ĠHIM": 88894,
  "isses": 84360,
  "Ġbonds": 26363,
  "ï¯ŀ": 148367,
  "ĠFacility": 46650,
  "ĠVita": 54624,
  "/path": 50976,
  "Wall": 32597,
  "×¦×¨×Ļ": 132099,
  "Characters": 37489,
  "à¸£à¸±à¸ļà¸Ľà¸£à¸°à¸Ĺà¸²à¸Ļ": 139171,
  "ç»¼åĲĪæĢ§": 107263,
  "å¤ļå°ĳ": 100430,
  "Æ¤": 146669,
  "ĠDEV": 50895,
  "Ġeiusmod": 79122,
  "Ġsql": 5704,
  "jours": 39806,
  "ãģ¤ãģĳ": 125783,
  "(',',$": 93273,
  "ĉfp": 65219,
  "ETHER": 16416,
  "èı²å¾ĭå®¾": 108919,
  "PERT": 13787,
  "Ġpilgr": 54598,
  "ĠØ§ÙĦÙħØ¬": 126913,
  "Ġ''": 3355,
  "å¥½çľĭçļĦ": 112942,
  "à¸«à¸¥à¸²à¸¢": 125102,
  "Ġdislikes": 98885,
  "ç»ĦåĲĪ": 101220,
  "Ġrever": 35137,
  "ĠØ¹ÙĦÙĬÙĨ": 139978,
  "ĉread": 37043,
  "è¯ĹæĦı": 117599,
  "ĠMichael": 7937,
  "æĭ³": 101363,
  "ĠauthService": 64696,
  "ĠTwe": 61698,
  "ategies": 69388,
  "ĠLac": 54041,
  "<void": 16958,
  "ĠFres": 59650,
  "Ø±Ø¤": 135746,
  "Ġseminal": 89673,
  "ØµØ§Ø±": 129448,
  "-U": 34581,
  "ĠPets": 35886,
  "ĠCurrently": 24150,
  "Ġstage": 6430,
  "Ġinforms": 63152,
  "ĠÑĦÐ¾Ð½": 140406,
  "ping": 9989,
  "è¨ĢãĤıãĤĮ": 134974,
  "umbing": 32446,
  "ĠÐ´ÐµÐ¹ÑģÑĤÐ²Ð¸Ðµ": 142668,
  "ëĺĲ": 144219,
  "ĠACLU": 64868,
  "<Transform": 84930,
  "ØªØ¹Ø§ÙĪÙĨ": 134034,
  "ĠNiagara": 77877,
  "Ġrotor": 62025,
  "Ġstyle": 1707,
  "Ġbz": 80167,
  "rian": 7266,
  "ĠYE": 76948,
  "âľĢ": 150716,
  "ĠVÄ©nh": 142193,
  "ĠManson": 98133,
  "Ġ});čĊ": 12397,
  ".RemoveAll": 84427,
  "Ġ!!}Ċ": 23912,
  "-like": 12681,
  "çĪµå£«": 116862,
  "ìĹĲìĦľ": 56475,
  "erial": 2848,
  "åīįèº«": 113877,
  "åįĹåĮĹ": 107280,
  "ëĴ": 124577,
  "ë®Ī": 146191,
  "cg": 27446,
  "åĽĽæĺ¯": 107838,
  "åħ¬ç½ĳå®īå¤ĩ": 111340,
  "ĠØ§ÙĦØµØŃÙĬØ©": 138554,
  "ksiÄħÅ¼ka": 143973,
  "Ġspirituality": 74356,
  "Ġcomme": 21572,
  "ĠMEDIA": 60186,
  "CLOSE": 47887,
  "ä¾Ŀæĵļ": 115754,
  "à¸ªà¸¡à¸²": 125935,
  "reddit": 36933,
  "å¦©": 119776,
  "Ġsnapshot": 16295,
  "é»ł": 121981,
  "aaaaaaaa": 69440,
  "ettings": 81183,
  ":</": 7764,
  "ëĽ´": 145981,
  "zbollah": 58504,
  "ffects": 39927,
  "ç½ĳåĿĢ": 104696,
  "Ġ(\\<": 24333,
  "WW": 18985,
  "Ġmuster": 83650,
  ".identifier": 37177,
  "ĠÙĦÙĩØ°Ùĩ": 137726,
  "WebHost": 89575,
  "æĺ¥å¤ı": 117358,
  "Ġlets": 15354,
  "ungle": 28647,
  "è°¿": 123638,
  "isin": 57404,
  "(UnityEngine": 43349,
  "ĉJSONObject": 59373,
  "_when": 47636,
  "ĠHol": 15696,
  "ĠsiÃªu": 132539,
  "ĠÐ¸ÑģÐºÑĥÑģ": 136456,
  "Ġdelightful": 49089,
  "Ġmembuat": 76234,
  "_ed": 32370,
  "bundle": 34518,
  "ï¤Ĺ": 147862,
  "çļĦè¯Ŀ": 100363,
  "ç¢ĵ": 121161,
  "oÅĽci": 89056,
  "]){čĊ": 96390,
  "ãĤ³ãĥŁãĥ¥": 143657,
  "ãģ¦ãģĹãģ¾ãģ£ãģŁ": 132353,
  "ÑĳÐ½": 131069,
  "Ġgoofy": 99094,
  "ĠTactics": 93838,
  "NoSuch": 65531,
  "amiliar": 40405,
  ".docker": 91131,
  "ĠNUnit": 52450,
  "ð«ĽŃ": 123065,
  "zug": 72101,
  "ĠRails": 36405,
  "ĠKe": 6569,
  ".dgv": 43048,
  "Ġconcerning": 18310,
  "ĠMost": 7496,
  "ĠëĮĵê¸Ģ": 143243,
  "ĠUNITY": 56084,
  "Ġempt": 53069,
  "ĠStevens": 35077,
  "setValue": 22541,
  "âĨ»": 149243,
  "SN": 18966,
  "ä½°": 115709,
  "fields": 9007,
  "uar": 18731,
  "âĢĶwho": 83841,
  ".TextAlign": 30932,
  "olatile": 25517,
  "ĠExperienced": 99023,
  "ç»ĳæŀ¶": 116466,
  "ĠsoluciÃ³n": 142706,
  "Ġnewcom": 48476,
  "/models": 20268,
  "Ã»t": 59668,
  "ĠRing": 21525,
  "Çľ": 150328,
  "æĿĳæ°ĳ": 101248,
  "ĠØ§Ø¨ÙĪ": 141533,
  "ĠìĿ´ë£¨ìĸ´": 139647,
  "ĠRav": 33974,
  "-version": 45367,
  "cast": 3829,
  "Ġ*[": 97932,
  ".GetFileName": 63566,
  "Ġcultiv": 26883,
  "áº¿m": 125770,
  "Ġmail": 8072,
  "Ġ×ŀ×Ĳ×©×¨": 134901,
  "encryption": 79937,
  "ãĥ¡ãĤ¤ãĥ³": 138997,
  "è¿Ĳè½¬": 106988,
  "_txn": 92299,
  "Ġcentury": 9294,
  "éĢ²ãĤģ": 136945,
  "Ġthresholds": 56140,
  "ricanes": 55195,
  ".ta": 72160,
  "()='": 97923,
  "å®¢æĪ·éľĢæ±Ĥ": 116932,
  "à¸Ħà¸£à¸±à¸§": 127430,
  "ĠFormer": 32500,
  "Ġclusters": 26968,
  "Ġbingo": 77024,
  "æĢ¿": 119968,
  "Ġliteracy": 51982,
  "Ġmotivations": 64831,
  ".pushButton": 87848,
  ".extend": 15831,
  "spec": 9535,
  "ì´¨": 146686,
  "imitives": 35209,
  "ĠSex": 6695,
  "Ġ×©×ł": 128383,
  "Ġposte": 91046,
  "ĠMiddleware": 72012,
  "Ġshape": 6083,
  "Ġhá»¯u": 129347,
  "ØªØ§Ø¨Ø¹": 130162,
  "ãģłãĤįãģĨ": 129085,
  "_warnings": 87658,
  "ĠBureau": 21802,
  "é¥¥": 103692,
  ".apps": 39713,
  "hb": 49039,
  "æ³¨éĩį": 104216,
  "åįģåĪĨéĴŁ": 115443,
  "ê°Ģìŀħ": 139936,
  "çīģ": 120263,
  "ç½®": 21596,
  "_DST": 71772,
  "ĠAnchor": 48772,
  "æİĥ": 116897,
  "ocode": 43688,
  "ð¬¬¹": 122647,
  "ä¸įåĨįæĺ¯": 108883,
  "ASP": 65104,
  "ĠØ§ÙĦØ´Ø¹Ø¨": 129839,
  "à¸Ľà¸£à¸°à¸ªà¸ĩà¸Ħà¹Į": 139569,
  "endez": 72502,
  "è§£è¯´": 110415,
  "çĲ¬": 120849,
  "ombat": 77628,
  "_connections": 56402,
  "ĠLogin": 8779,
  "annabin": 96753,
  ".BackgroundImage": 35332,
  "Ġmáº¯t": 128668,
  "ĠThing": 37200,
  "Ġprovince": 16847,
  "ategorie": 37473,
  "å¸¼": 120682,
  ".priority": 55613,
  "Southern": 85738,
  "×ķ×ł×Ķ": 124225,
  "Ġstatewide": 50941,
  "-seven": 78025,
  "Ġreboot": 34592,
  "×¤×ķ×¨×¡×Ŀ": 132404,
  "Ġseen": 3884,
  "_EV": 65458,
  "é¦ĸå®¶": 108881,
  ".barDockControl": 96000,
  "éħĴåºĹ": 101078,
  "puter": 11281,
  "à¹Ģà¸Ńà¹Ģà¸Ĭ": 138273,
  "ĠcÃ¡nh": 134374,
  "âºŁ": 151641,
  "Ġfilesystem": 38389,
  "(pool": 41838,
  "Ġharmed": 68425,
  "Ġflip": 18287,
  "ĠNAV": 53303,
  "/domain": 71972,
  "åįĥæĸ¹": 118806,
  "Ġvaccines": 39200,
  "KANJI": 96610,
  "ĠMi": 20740,
  "ĠÐ»Ð¸ÑĩÐ½Ð¾": 134609,
  "illator": 70084,
  "ĠOrderedDict": 53213,
  "ĠAstr": 38516,
  "æİĲ": 114175,
  "Ð²Ð°ÑĢ": 125626,
  "-Ray": 78404,
  "éĢıéģİ": 108254,
  "íľ«": 147595,
  "ç»Ĭ": 114683,
  "Ġíĺ¸íħĶ": 139962,
  "Ġdados": 27945,
  "_FW": 73108,
  "æĪĲä¸ºä¸ĢåĲį": 118255,
  "ÅĤem": 74332,
  "à¸¥à¸°à¹Ģà¸Ńà¸µà¸¢à¸Ķ": 127199,
  "Ġuphol": 69204,
  "_mean": 16933,
  "è½¦èº«": 107885,
  "En": 1702,
  ",'%": 63354,
  "ichTextBox": 52459,
  "_saved": 53709,
  "_Timer": 64026,
  "è®®é¢ĺ": 113994,
  "uien": 87074,
  "Connect": 14611,
  "ĠÐ´ÐµÐ½ÑĮ": 126585,
  "uded": 37377,
  "Ġscrollbar": 79655,
  "ĠMOVE": 34926,
  "Ġthou": 33123,
  "èħ³": 108502,
  "Ġgather": 9567,
  "lijk": 47292,
  "ðŁĹ³": 149939,
  "_Close": 68185,
  "×¤×¢×ķ×ľ": 128066,
  "ĠAdvisors": 90685,
  "à¹ģà¸Ļà¸°à¸Ļà¸³": 129519,
  "utex": 9371,
  "{},": 22655,
  "ĠØ³ÙĨÙĪØ§Øª": 132351,
  "Ġ{}Ċ": 5613,
  "Ġinterpreter": 39299,
  "ĠÙħØ¨Ø§Ø±Ø§Ø©": 136369,
  "Ġzer": 76178,
  "ĠÑĨÐµÐ½Ñĭ": 134972,
  "ÐµÐ½Ð½Ð¾": 124448,
  "Ġinvent": 17023,
  "ĠÐ·Ð°ÑĤÐµÐ¼": 138265,
  "vice": 1768,
  "NSDictionary": 24711,
  "Thirty": 91602,
  "åıĪè¢«": 110387,
  "Ġgift": 8189,
  "_INTERNAL": 31752,
  "å¤§è±¡": 116438,
  "å±ķæ¼Ķ": 118876,
  "ÙĨØ§ÙħØ¬": 127700,
  "']:Ċ": 18381,
  ",/": 87682,
  "eÃ±o": 131011,
  "PACKAGE": 61989,
  "\"These": 67779,
  "Ġ$\"{": 37758,
  "ĠMÃ©": 42931,
  "_;": 23182,
  "ĉclick": 78792,
  "_lastname": 93212,
  "Ġgen": 4081,
  "Ġ:\\": 82956,
  "angled": 38940,
  "/templates": 38941,
  "Ġintensity": 20612,
  "ĠKeystone": 70573,
  "Ġflask": 19534,
  "ĠyanÄ±nda": 134800,
  "ãĬ¥": 151633,
  "itime": 38504,
  "æļĸæ°Ķ": 115829,
  "currentState": 84870,
  "usat": 87432,
  "_company": 33403,
  "ãĤĵãģĺãĤĥãģªãģĦãģĭ": 142979,
  "Timeline": 59641,
  "Variant": 20746,
  "íķľëĭ¤ëĬĶ": 136305,
  "ĠCortex": 89902,
  "èµ·æºĲ": 113228,
  "ĠTristan": 96590,
  "(post": 19630,
  "_PASSWORD": 23059,
  "æ¨Ļæºĸ": 112472,
  "ĠgroupName": 65535,
  "ĠStringIO": 66935,
  "éĺĲæĺİ": 118447,
  "Ġdeix": 64756,
  "â¨¯": 149064,
  "ichert": 92473,
  "Ġprobably": 4658,
  "Ġplung": 52772,
  "WithError": 66102,
  ")'": 21636,
  "(logger": 37833,
  "è¢«è¯Ħä¸º": 107367,
  "_IRQ": 21980,
  "\\App": 39923,
  "é¬£": 122119,
  "ĠMetrics": 54190,
  "Ġlevels": 5866,
  "æ³¢çī¹": 117731,
  "_LOW": 25831,
  ".readAs": 81371,
  "Ġchica": 79588,
  "Van": 45224,
  "_BLUE": 53463,
  "Sent": 31358,
  "Ġdrying": 45379,
  "ĠphÃ¢n": 129036,
  "ĠAnne": 27926,
  "ç³Ĭæ¶Ĥ": 116402,
  "âĦ": 14936,
  "âĬĽ": 148058,
  ".acquire": 69627,
  "ONGODB": 92601,
  "\"];čĊ": 32314,
  "VL": 30698,
  "ðŁıĩ": 151509,
  "_STENCIL": 85666,
  "Ġ×ŀ×Ĺ": 125540,
  "æĤīå°¼": 117892,
  "æĮ¥": 99819,
  "ĠDepot": 46970,
  "Ġnim": 45692,
  "-outs": 83975,
  "orum": 33006,
  "pytest": 26721,
  "åħ®": 113774,
  "Para": 30205,
  "adult": 67856,
  "[property": 76596,
  "å¤ª": 99222,
  "__('": 23426,
  "È¤": 150338,
  "StandardItem": 93738,
  "ĠDj": 51062,
  "çĮĽçĥĪ": 116672,
  "ĠArchitects": 77013,
  "(\"/:": 91944,
  "-using": 92775,
  "á¨²": 150099,
  "åľ¨æĪĳåĽ½": 109705,
  "=B": 54526,
  "çıį": 100861,
  "(doc": 19153,
  "Ġoverriding": 67871,
  "Ġdossier": 52476,
  "Ġairing": 70253,
  "ðŁ¥Ł": 149213,
  "(datas": 64827,
  "Ber": 38279,
  "node": 3509,
  "ĠTues": 82683,
  "iversary": 17577,
  "Ġíģ°": 132182,
  "ĠKo": 29317,
  "Ġfrustrations": 88934,
  "(CC": 74071,
  "_precision": 54618,
  "ĠÑģÐ»ÑĥÑĩ": 89126,
  "Ġbiome": 83610,
  "Û¦": 146678,
  "å§Ķç»Ħç»ĩ": 116573,
  "ĠME": 16292,
  "ĠDataGridViewCellStyle": 75263,
  "çľģåĨħ": 109491,
  "ĠCat": 17358,
  "åĶı": 120384,
  "à¸Ķà¹Į": 124986,
  "ëĶ´": 144760,
  "ðĿķĤ": 151328,
  "valor": 24782,
  "engineering": 97915,
  "ĠÐ¾ÐºÑĤÑı": 139791,
  "shal": 12214,
  "usahaan": 75576,
  "_Stop": 80308,
  "ĠResponseEntity": 19803,
  "å¿³": 122250,
  "uw": 42110,
  "åĪĩ": 99322,
  "Ġweekends": 37002,
  "ResourceId": 94838,
  "ä½İç«¯": 115345,
  "éĻĤ": 119774,
  "Ġrefers": 19257,
  "Ġ-------------------------------------------------------------------------": 90915,
  "Ġerw": 66386,
  "á¼Ħ": 146271,
  "ĠTrying": 49858,
  "ç¨įå¾®": 106683,
  "ĠApproach": 53084,
  "Ġaction": 1917,
  "éļİæ®µ": 116619,
  "ĠArena": 27047,
  "TAG": 32144,
  "_node": 5084,
  "));čĊčĊ": 21457,
  "ÃŃculos": 66011,
  "simp": 20845,
  "ĠReflection": 42876,
  "åĮºç®¡å§Ķä¼ļ": 118703,
  "Ġespecial": 32297,
  ".Gray": 74968,
  "-centered": 49382,
  "Ġchaining": 73662,
  "éĢ¦": 120343,
  "Nodes": 12288,
  "=\\": 34433,
  "âĮ¨": 147888,
  "ĠShapiro": 79731,
  "ĠÐ¿ÑĢÐ¾Ð¸ÑģÑħÐ¾Ð´Ð¸ÑĤ": 136830,
  "à¥įà¤°": 85033,
  "çĬ¸": 119633,
  "à¸ĸà¸²à¸¡": 126008,
  "ĠlÃ¤sst": 73741,
  "é²½": 121924,
  "ç«ĭåľº": 105561,
  "Gear": 82784,
  "ength": 996,
  "ĠGuys": 50200,
  "ĠSpecialty": 81514,
  "(of": 27027,
  "Ġ*}ĊĊ": 98372,
  "atasets": 76649,
  "-commit": 96398,
  "åĩºå¸Ń": 102399,
  "à¹Ģà¸Ńà¹ĩà¸Ļ": 143699,
  "acteria": 77752,
  "deserialize": 66777,
  "ãĤ¤ãĥ³ãĤ¿": 136515,
  "Ġtaxpayers": 34648,
  "_bridge": 54944,
  "Ġvibr": 16929,
  "ĠCONCAT": 78143,
  "ç§ĳçłĶéĻ¢": 117588,
  "Ġconcatenated": 97534,
  "âĬ£": 150659,
  "åĺĺ": 119021,
  "=form": 51374,
  "Ġflea": 95855,
  "ĠMonterey": 97395,
  "æ±½": 95400,
  "ĠAST": 22465,
  "ĠDROP": 56942,
  "_ARG": 13905,
  "ÙĢÙĢÙĢÙĢ": 127439,
  "Ġoh": 14019,
  "_KEY": 6600,
  "holes": 74690,
  "æģĥ": 119362,
  "ĠAsphalt": 89314,
  "åķıãģĦåĲĪãĤıãģĽ": 138940,
  "å¦Ĥæŀľæĺ¯": 105709,
  "×ł×ĵ×¨": 136228,
  "ĠkÃ¶nnen": 20048,
  "someone": 89479,
  "Æ°Æ¡i": 127437,
  "ĠnastÄĻ": 143287,
  "lbrakk": 74161,
  "]),Ċ": 17036,
  "_devices": 41334,
  "åĽ½åĨħå¸Ĥåľº": 114629,
  "äºĶå¹´": 104540,
  "como": 96296,
  "legen": 48414,
  "Ġsexually": 26583,
  "_set": 2602,
  "Ġexpires": 27902,
  "à¸Ļà¸´à¸¢à¸¡": 132712,
  "Ġtweet": 11809,
  "female": 42634,
  "(addr": 24497,
  "Ð¸Ð´Ðµ": 127473,
  "javascript": 14073,
  "Ġpaperwork": 44631,
  "Gran": 90723,
  "usz": 69391,
  "Ø±Ùĩ": 125757,
  "ä¸ºä¹ĭ": 110624,
  "ãģ«å¯¾": 127125,
  "ifold": 48285,
  "-complete": 74414,
  "ĉnot": 97266,
  "çĦľ": 121040,
  "Ø¯Ùī": 124868,
  "natal": 73339,
  "ë¯ĵ": 148134,
  "ĠRohingya": 96751,
  "Ġperimeter": 46342,
  "ĠØ§ÙĦÙħØµØ¯Ø±": 138026,
  "oplayer": 93108,
  "ĠÙĬÙĤÙĪÙħ": 133450,
  "Ġformatting": 36566,
  "_LITERAL": 78047,
  "æĳĶ": 103036,
  "Ġ×ľ×©×ŀ×ķ×¨": 136519,
  "è¦Ĩ": 100247,
  "ĠPrice": 8483,
  "Ġbooster": 56432,
  "Ġxlink": 96239,
  "Ġmotherboard": 64243,
  "|()Ċ": 66627,
  "ĠBoyle": 82059,
  "_dropout": 74605,
  "mailbox": 92447,
  "ÙħÙĪØ§ÙģÙĤØ©": 143327,
  "ĠEsta": 55708,
  "Id": 764,
  "[len": 24693,
  "å¿ħå°Ĩ": 108485,
  "ĠUnited": 3639,
  "æĹ¥æĻļéĹ´": 114756,
  "ylland": 51606,
  ".deltaTime": 28758,
  "åħ¥ä½ı": 107227,
  "*C": 77104,
  "ĠdeberÃŃa": 139605,
  "spacing": 23436,
  "ĠmÃ¡": 28730,
  ".Area": 81435,
  "mando": 79744,
  "ÅĤad": 44871,
  "actus": 60959,
  "Ø¥Ø±Ø³Ø§ÙĦ": 142376,
  "ENT": 1825,
  "Ġyuk": 142725,
  "Ã¤nd": 21545,
  "NIC": 44947,
  ".QRect": 86727,
  "ĠsÃ¡ng": 128688,
  "Ā": 188,
  "ĠDifference": 55080,
  "Determin": 92648,
  "ĠCollabor": 48581,
  "Ġ×Ķ×Ļ×Ĺ×Ļ×ĵ": 134604,
  "à¸¥à¸¶à¸ģ": 134263,
  "Ġ×Ķ×Ĺ": 124789,
  "æ³·": 119948,
  "æ¯ıæĹ¥ç»ıæµİ": 118858,
  "ĠMIME": 57477,
  "Ġip": 5997,
  "ç»ıè´¸": 108031,
  "ĠHann": 27729,
  "Oh": 11908,
  "Ø§Ø²ÙĬ": 136246,
  "èļ§": 120380,
  "Ġephem": 82134,
  "ĠRequirements": 33784,
  "Continue": 23526,
  "Ã¤ndig": 130337,
  "ãģī": 144150,
  "Ġpossesses": 49226,
  "è·¶": 121194,
  "lust": 70979,
  "atte": 62634,
  "ëŁ¼": 125894,
  "ĠPercent": 55348,
  "uen": 10316,
  "ĠReported": 78611,
  "ĠHyundai": 59840,
  "Ġ------------------------------------------------------------------------------------------------": 59809,
  "iap": 67721,
  "ÙģÙĬÙĨ": 135430,
  "Ġsuff": 8489,
  "Ġ×ľ×ĳ×Ļ×ª": 131979,
  "ĠtecrÃ¼": 143451,
  "Ġcif": 65472,
  "ç®ĸ": 123361,
  "\"?": 43869,
  "ç¼Ĵ": 121092,
  "Ġincarn": 95972,
  "ricks": 77789,
  "mdb": 78127,
  "ĠReward": 55800,
  "ØªÙħØ«ÙĦ": 136334,
  "Ġcbd": 58527,
  "Ġpatches": 28660,
  "Ġniche": 34049,
  ".InputStream": 29904,
  ".Special": 59652,
  "éĺ´è°ĭ": 116101,
  "ĠFarm": 18438,
  "Enc": 7408,
  "icians": 9621,
  ".member": 32346,
  "Ġdat": 3258,
  "å®ģéĿĻ": 110212,
  "ĠÙħØ³Ø§Ø¡": 128010,
  "_check": 7200,
  "à¹Ģà¸ŀà¸´à¹Īà¸¡à¸Ĥà¸¶à¹īà¸Ļ": 138058,
  "kind": 15314,
  "ĠrowData": 73658,
  "â§ī": 150731,
  "Ġgently": 29273,
  "Ġdez": 70768,
  "ëİĮ": 145107,
  "æµģè¡Į": 102529,
  "ÙĤØªØ±": 139276,
  "_team": 26532,
  "Ġsinister": 62567,
  "ĠRECEIVE": 88875,
  "Ġdps": 94029,
  "éº»æľ¨": 117949,
  "uncate": 26900,
  "â½Ģ": 149389,
  "Ġresides": 52968,
  "Ġbirth": 7194,
  "å¸Ķ": 119886,
  ".slf": 20532,
  "(network": 46542,
  "Ġ×Ķ×§×ķ×ĵ×Ŀ": 143290,
  "\\xaa": 95269,
  "-bar": 15773,
  ":A": 55648,
  "æĪĳçľģ": 105617,
  "×Ĳ×ķ×Ĵ": 143190,
  "PCS": 72654,
  "Ġhex": 12371,
  "Ġediting": 15664,
  "Although": 15802,
  "ĠØ§ÙĦÙĪØ·ÙĨÙĬ": 131262,
  "ULER": 89831,
  "Ð±Ð¸ÑĢ": 129754,
  "×Ļ×¤×ķ×Ļ": 141379,
  "Ġlet": 1077,
  "Toolbar": 26167,
  "Ġtagging": 78153,
  "]])": 29616,
  "_Manager": 47573,
  "ControlItem": 30019,
  "èĢĮæĿ¥": 105758,
  "ÜĿ": 146066,
  "æĿłæĿĨ": 108244,
  "ĠimagePath": 69933,
  "ĠCRS": 94242,
  "à¹Ģà¸ĩà¸·à¹Īà¸Ńà¸Ļ": 140714,
  "(controller": 40845,
  ".Texture": 46820,
  "å°Ħæīĭ": 111500,
  "ddb": 89723,
  "Èī": 150335,
  "âĺħ": 26251,
  "_health": 45727,
  "×ķ×¨×Ļ×Ŀ": 125533,
  "Ġspeculate": 63501,
  "à¸ľà¹īà¸²": 127155,
  "Ġmots": 77099,
  "ĠSPELL": 47844,
  "èĢģå¹´": 106487,
  "Phone": 6939,
  "ĠCOMPLETE": 77031,
  "åĶ®åįĸ": 114991,
  "ĠdáºŃy": 139861,
  "âĵĢ": 150124,
  "ĠIMAGES": 84864,
  "Ġrepeats": 43594,
  ".cast": 35091,
  "Ġissuance": 66499,
  "ĠKata": 98838,
  "å®¤": 99478,
  "Strong": 47586,
  "æ¸¼": 123095,
  "avid": 15212,
  "Victoria": 80956,
  "Fra": 78056,
  "ç®Ģä»ĭ": 102335,
  "Ġstate": 1584,
  "Ġmbox": 91407,
  "ĠTomb": 56172,
  ".Top": 17557,
  "ANG": 5218,
  "Ġinaccessible": 81728,
  "grab": 58212,
  "åĲĮå¿Ĺ": 101309,
  "ĠchÃºt": 130575,
  "Ġsurre": 24165,
  "odynamics": 78911,
  "ç½±": 121433,
  "Ġ},čĊ": 9879,
  "ãģ«åħ¥ãĤĮ": 134377,
  "à¸Ľà¸±à¸įà¸įà¸²": 143179,
  "êµ³": 144239,
  "ê¶¤": 144573,
  "ĠFiesta": 93803,
  "ð¬ĺŃ": 122923,
  "åįĹéĿŀ": 113453,
  "ÐĲ": 36155,
  "ĠfuncionÃ¡rios": 143768,
  "âĵľ": 148471,
  "PUR": 95445,
  "èĥ³èĨĬ": 112669,
  "oodles": 97121,
  "åĻĻ": 121621,
  "Ġdank": 80122,
  "è¡": 12787,
  "â¤Ħ": 150727,
  "Ġprocur": 70502,
  "-winning": 26777,
  "à°¡": 149532,
  "ĠÙĦØªØŃ": 143011,
  "ator": 850,
  "åķ®": 120654,
  "ä¾ĭå¤ĸ": 103636,
  "èªĵ": 103421,
  "Ġmemor": 16035,
  "çļĦåĬ¨åĬĽ": 109436,
  "Ġsmtp": 54397,
  "Ġanonymous": 22151,
  "ìĤ¯": 145832,
  "éĴĴ": 119894,
  "ĠMary": 10244,
  "ï²Ī": 151218,
  "Ġcrushed": 32645,
  "Behind": 73642,
  "muÅŁtur": 128085,
  "ÙĬØ©": 73441,
  "dart": 35594,
  "çľī": 101344,
  "åķŃ": 120651,
  "ĠSaudis": 87835,
  "à¹Ģà¸ĭà¸¥": 143106,
  "ĠlÃ¦": 77214,
  "æ±ŁåĮĹ": 115188,
  "ĠClown": 98323,
  "â¤ĩ": 147103,
  "ðŁĶĮ": 148114,
  "Ġspelling": 42429,
  "enade": 86039,
  "ĠVersion": 6079,
  "Ð¼ÐµÑĩÐ°": 135853,
  "\"in": 54401,
  "ITA": 63186,
  "Ġindispensable": 63184,
  "koÅĦczyÅĤ": 141213,
  "éĶ¨": 121225,
  "JEXEC": 95045,
  "ÙĪØ§Øª": 124691,
  "Make": 8078,
  "æ¢ı": 120607,
  "æķĻæİĪ": 102040,
  "obuf": 18464,
  "×©×Ł": 134887,
  "ĠÐ¿Ð¾Ð¼ÐµÑīÐµÐ½Ð¸Ñı": 143300,
  "ential": 2283,
  "èķī": 103570,
  "ARTH": 76354,
  "à¸Ĭà¹Īà¸§à¸¢à¹Ģà¸«à¸¥à¸·à¸Ń": 135400,
  "çļĦäºĭæĥħ": 103976,
  "Ġhousehold": 13732,
  "ä½İæĪĲæľ¬": 114552,
  "æį¨ãģ¦": 137821,
  "ĠGAS": 89709,
  "Ġcrafted": 33458,
  "{}_": 65797,
  "èĵģ": 121120,
  "é²¬": 123476,
  "ãĤ¹ãĥļãĥ¼ãĤ¹": 142170,
  "ĠtrÃ¬nh": 128361,
  "Axis": 8143,
  "Ġforesee": 56691,
  "ĉcopy": 49124,
  "Ġhoop": 78671,
  "Ġ_$": 32186,
  "GES": 69968,
  "Ġscreenings": 83506,
  "Ġcryptocurrencies": 43974,
  "UMP": 23730,
  "Ġextractor": 67472,
  "ä¸İæĹ¶ä¿±è¿Ľ": 111768,
  "ð«ĺª": 123282,
  "-paper": 76719,
  "ĠCREATE": 30776,
  "Ġlil": 61371,
  "-pass": 46967,
  "çĳŀåħ¸": 110055,
  "buff": 25976,
  "âĻł": 144867,
  "ĠMá»¹": 128819,
  "áº¯t": 124651,
  "tility": 12189,
  "ĠTÃ¼rkÃ§e": 136891,
  "ä¶µ": 151542,
  "ãģ£ãģ¡": 133266,
  "è¨»åĨĬ": 101766,
  "Ġstehen": 64857,
  "wp": 8421,
  "OE": 52865,
  "åħ³éĹ¨": 115493,
  "Ġcuatro": 76008,
  "Ġamounted": 73219,
  "ïº±": 145728,
  "Ð»Ñĥ": 129070,
  "ĠRear": 45902,
  "èĤ": 56842,
  "Ġworkflow": 28288,
  "Remote": 24703,
  "inished": 24657,
  "Ġcyn": 47264,
  ".serv": 64826,
  "à¹Ģà¸¥à¸·à¸Ńà¸ģ": 128527,
  "TRAN": 48773,
  "[:]": 74294,
  "ugin": 3631,
  ".addField": 88560,
  "Ġhug": 29784,
  "Ġregime": 17484,
  "Ġ],čĊ": 34341,
  "Lang": 26223,
  "mission": 2728,
  "ĠArmen": 38378,
  "Emily": 84048,
  "'])){čĊ": 71568,
  "åĬŀå¥½": 111264,
  "Ġintimidating": 63030,
  "çļĦéĹ®é¢ĺ": 103936,
  "_CONF": 29212,
  "Ġranged": 40729,
  "(scene": 39821,
  "ë¬¸íĻĶ": 131655,
  "è¿Ļå¼ł": 108893,
  "Ġfilib": 95686,
  "skirts": 66975,
  "à¥±": 151517,
  "Ġradios": 70069,
  "æĹłæĦı": 108860,
  "Ġhear": 6723,
  "æ¶®": 119419,
  "cantidad": 49331,
  "è¿ĩ": 38182,
  "ĠETH": 37742,
  "ĠSession": 9164,
  "Wy": 66907,
  "ĠÄĳá»Ļi": 129188,
  "Ġapplications": 8357,
  "Ġbrethren": 72803,
  "utton": 959,
  "eliac": 94605,
  "×ĳ×¡×ķ×¤": 138474,
  "OfYear": 82202,
  "Ġmigr": 9772,
  "ĠgeliÅŁtir": 132187,
  "Ġmasked": 42148,
  "ĠComet": 98098,
  "å¾Īåĸľæ¬¢": 108295,
  "Ġangles": 25941,
  "Ġ))ĊĊ": 48622,
  "Ġloosen": 82742,
  "âĻĴ": 148062,
  "ä¹ĭä¸Ģ": 100653,
  "schema": 17349,
  "roperties": 9249,
  "è¯®": 120254,
  ".xhtml": 88366,
  "(prediction": 90314,
  "DOCUMENT": 44097,
  "å¿ĳ": 119680,
  "ĠØªØµÙĨÙĬÙģ": 130548,
  "','=',": 97637,
  "_QUESTION": 93430,
  "Ġtactile": 98583,
  "ĠGazette": 74582,
  "-help": 49470,
  "âĪ£": 148055,
  "ĠmáºŃt": 130821,
  "âĽĳ": 149057,
  "Ġscalability": 93740,
  "ï¨ī": 148232,
  "Ġbesteht": 98421,
  "fans": 85877,
  "Ġì¦": 132376,
  "Ġeased": 94882,
  "ĠÑĦÐ¸Ð½Ð°Ð½ÑģÐ¾Ð²": 135158,
  "æĽ´ä½İ": 115028,
  "å°ģ": 99690,
  ".bc": 84493,
  "ĠLandscape": 62541,
  "Ġproprietary": 33233,
  ".Inf": 33521,
  "ãĥĪ": 19674,
  "ĠĊĉĊ": 51141,
  "ĠSpecifically": 44763,
  "-commercial": 73044,
  "ĠnewArray": 62917,
  "opic": 24810,
  "Ġmaterials": 7236,
  "éĹŃçİ¯": 115309,
  "çĦĬ": 103017,
  "å¤ļãģĦ": 125218,
  "ĠÙĪÙİ": 129095,
  "star": 11870,
  "Ġnen": 70298,
  "Ġsanct": 34489,
  "Ġloáº¡t": 137634,
  "Ġog": 7350,
  "ß¡": 150050,
  "å«ģç»Ļ": 112703,
  "æŃĮå£°": 112819,
  "Ġê·¸ëŁ¬ëĭĪê¹Į": 141306,
  "æĿŃå·ŀå¸Ĥ": 111710,
  "uppe": 58498,
  "ĠGobierno": 84072,
  "Ġmaster": 7341,
  ".li": 61419,
  "Regarding": 84525,
  "ĠLords": 56048,
  "éĢłèĪ¹": 118285,
  "Enemy": 28161,
  "anvas": 11947,
  "èģªæĺİ": 105414,
  "ĠTillerson": 74180,
  "âĶį": 150138,
  "æĭ¥æľī": 103926,
  "ð«Ĺ": 103906,
  "English": 22574,
  "Ġ\"}\\": 90105,
  "Ġinstalling": 26632,
  "Expired": 54349,
  "ÏĹ": 150355,
  "lardÄ±r": 133947,
  "_decay": 43260,
  ".dict": 54777,
  "Ġinfluencers": 86233,
  "ĠStocks": 79236,
  "method": 4393,
  "ã«´": 150797,
  "-selected": 45240,
  "ĠVentures": 74796,
  "ä¸īä¸ªæľĪ": 108213,
  "SE": 925,
  "ĠHarvest": 55835,
  "ä¸ºä»Ģä¹Īè¦ģ": 107781,
  "akah": 76427,
  "header": 2708,
  "çĶ¢çĶŁ": 109584,
  "Ġsept": 34329,
  "ĠUIAlert": 30049,
  "Ġencompasses": 69910,
  "ido": 5249,
  "Ġspecializing": 57294,
  "à¸Ħà¸£à¸Ńà¸ļà¸Ħà¸£à¸±à¸§": 133163,
  "à¸Ĥà¹īà¸²à¸§": 131661,
  ".getMethod": 66785,
  "è½¬è½½": 101246,
  "Ġfee": 11060,
  "Ġseemingly": 22660,
  "à¸Ĺà¸¸à¸Ļ": 125934,
  "/cmd": 83033,
  "Ġclouds": 29514,
  "ĠÐ¿Ð¾ÐºÑĥÐ¿Ð°": 134229,
  "éī´äºİ": 107793,
  "=username": 67421,
  "Clinical": 95730,
  "ĠTail": 36079,
  "Ġshortcut": 37115,
  "Ġwaterfall": 69051,
  "GLOBALS": 19606,
  "ðłĻ¶": 122131,
  "Ġ\"@": 8428,
  "Ġpsz": 45083,
  "Ġcitizens": 10283,
  "(connect": 73480,
  "ç´§ç¼º": 115929,
  "ĠtestName": 94396,
  "ðŁĲŃ": 148171,
  "}$/": 69153,
  "ghost": 38654,
  "åįĬä¸ªæľĪ": 112520,
  "ewidth": 28357,
  "ĠĠĠĠĠĠĠĠĠĠ": 1843,
  "Comple": 66625,
  "ãģ¤ãģ¤": 133816,
  "value": 957,
  "ãģĬãģĦãģĹãģĦ": 143071,
  "_allocate": 77078,
  "èĿ¶": 103250,
  "<*": 78822,
  "æ¸ħåĩī": 112922,
  "MEM": 31970,
  "æŃĮæīĭ": 107434,
  "Ġviz": 47750,
  "Occurred": 61685,
  "ĠerrorMessage": 24943,
  "ĠtÃ¢y": 141567,
  "ĠÑĥÐ²ÐµÑĢÐµÐ½": 137893,
  "periences": 68497,
  "-force": 80049,
  "Î£": 144624,
  "ðŁĮ§": 147919,
  ".getActivity": 86563,
  "ATIONAL": 39585,
  "avier": 30648,
  "ĠSimulation": 43120,
  "ĠCF": 20795,
  "éĺ¶æ®µ": 100385,
  "æ»ĳ": 100243,
  "çļĦçľ¼": 101633,
  "ç²¾éĢļ": 114806,
  "Ġmammals": 55569,
  "Ġtravels": 34192,
  "æ¶£": 119391,
  "ponses": 22648,
  "Ġreunion": 57284,
  "à¹Ħà¸Ķà¹īà¸£à¸±à¸ļà¸ģà¸²à¸£": 133232,
  "æĸĩä¹¦": 111140,
  "Ġglac": 79516,
  "uÃ§": 127177,
  ")localObject": 59544,
  "ĠÙĬÙĪÙĦÙĬÙĪ": 135621,
  "Ġstares": 94402,
  "Ġash": 23828,
  "ĠãĤ¢": 93532,
  "Ġwool": 38540,
  "opport": 143008,
  "Ġcautious": 45778,
  "Ð»ÐµÐºÑĤ": 127076,
  "=\"./": 26420,
  "Ġ×ŀ×ŀ×ł×ķ": 133597,
  "_year": 14645,
  "ÙĦÙĬÙĥ": 138583,
  "æĪĳåĢĳ": 103981,
  "Ð¿Ð¿": 76991,
  "éĿ¢å®¹": 118971,
  "umm": 25964,
  "Ġlearned": 9498,
  "PubMed": 57138,
  "ĠÐ¾ÑĤÐ·ÑĭÐ²": 127790,
  "ä¾Ľ": 83744,
  "roll": 1100,
  "é¡·": 103492,
  "roads": 42691,
  "à¸§à¸²à¸ĩà¹ģà¸ľà¸Ļ": 142707,
  "ĠListTile": 63421,
  "çĿ¡è§ī": 105403,
  "Ġflashes": 61285,
  "×Ĳ×¨×ĳ×¢": 132790,
  "ĠcolorWith": 41511,
  "_down": 13998,
  ".Fore": 10527,
  "ìĭľìŀ¥": 133627,
  "',{Ċ": 71943,
  "æīĵéĢłæĪĲ": 111449,
  "éĨħ": 121580,
  "Ġcapitalize": 52725,
  "_parms": 98935,
  "ÙĨÙĩ": 124647,
  "æĶ»æĵĬ": 113407,
  "Ġ=================================================================": 16168,
  "Ġcritique": 42565,
  "Ġ×©×Ĳ×Ļ": 134073,
  "âĤĢ": 89669,
  "_years": 74490,
  "â¬¡": 149692,
  "Ġbuys": 49531,
  "èµ·åºĬ": 109195,
  "(~": 47326,
  "\\Object": 77865,
  "ĠØµÙģ": 141949,
  "ĠÐºÐ°Ð¶Ð´Ð¾Ð³Ð¾": 138393,
  "ĠBones": 71299,
  "Ġacting": 15358,
  "(sent": 61281,
  "_voice": 76765,
  "ðĿľĥ": 149909,
  "Ġpastoral": 89271,
  "cis": 78055,
  "ingers": 14105,
  "ertino": 90600,
  "Ġbackpack": 33136,
  "ĠgÃł": 134530,
  "ROUND": 22919,
  "Ġlda": 68131,
  "'/>": 87315,
  "éĹ®éģĵ": 106116,
  "Ġbackstory": 92271,
  "ATO": 58108,
  "Ġnortheastern": 86144,
  "æĢ»èĢĮè¨Ģ": 117606,
  "_record": 14192,
  "Total": 7595,
  "Ġexplicit": 11464,
  "â¾ĥ": 146908,
  "postal": 33170,
  "âĦī": 147002,
  "Ġnearing": 82299,
  "Ġwrists": 85778,
  "ä¸ĩçī©": 108441,
  "ADX": 83172,
  "Ġcorrespondent": 48564,
  "_PRODUCTS": 79881,
  "Ġsmugg": 40737,
  "ISTORY": 35586,
  "Ġë¨": 137767,
  "FileSystem": 50720,
  "/************************************************************************": 11370,
  "ëĹ": 124590,
  "à¹Ģà¸§à¹ĩà¸ļà¹Ħà¸ĭà¸ķà¹Į": 130416,
  "_payment": 26696,
  "ĠSERIAL": 70718,
  "Ġratings": 18102,
  "æĸ°é²ľ": 104838,
  "æĬ¼": 100971,
  "-switch": 47196,
  "×Ĵ×ķ": 126286,
  "Ġrecommends": 39812,
  ".Stage": 69873,
  "×ª×ĸ×ķ×ł×Ķ": 141530,
  "fois": 85533,
  "ĠGreenville": 92554,
  "Ġìĺ¤í": 142209,
  "ĠÐľÐ¾ÑģÐºÐ²Ð°": 137639,
  "stride": 47057,
  "à¸£à¸²à¸¢": 124878,
  "à¹Ģà¸Ĥà¸µà¸¢à¸Ļ": 129978,
  "ĠÐ²Ð°ÑĢÐ¸": 131939,
  "IES": 5369,
  "Ġpatri": 28225,
  ".timing": 98668,
  "ackers": 87412,
  "ĠzdjÄĻcia": 136813,
  "ĠìĹ´": 130847,
  "ĉĉĠĊ": 38812,
  "ÓĹ": 149268,
  "âĽ´": 149680,
  "alborg": 68202,
  "æĶ¿åºľ": 99563,
  "ĠaÃºn": 77558,
  "Ġfuncs": 76871,
  ".text": 2788,
  "Ġabl": 97392,
  "ilo": 18045,
  "ç¥ķ": 122542,
  "-method": 50297,
  "Ġvolont": 97633,
  "ĠdirecciÃ³n": 78113,
  "äº¬åŁİ": 112156,
  "xo": 40822,
  "éĴº": 120396,
  "Ġseek": 5931,
  "ĠÐ¾Ðº": 71564,
  "INF": 36409,
  "Ġadapters": 69025,
  "ĠÐ¼ÐµÑħÐ°Ð½Ð¸Ð·": 143431,
  "diÄŁimiz": 135066,
  "â§": 125002,
  "_pagination": 82231,
  "siblings": 51920,
  "')?></": 85718,
  "éĥ¿": 120813,
  "âĶĩ": 150248,
  "å¥´éļ¶": 117408,
  "Ġentrepreneurs": 34390,
  "Ġbake": 22544,
  "colour": 47339,
  "aic": 61388,
  "ĠGoldberg": 71575,
  "Ġceilings": 55714,
  "ĠGets": 10310,
  "ãģĦãģŁãģłãģįãģ¾ãģĹãģŁ": 139314,
  "Ġå¹": 74577,
  "æīĤ": 122538,
  "American": 28418,
  "ĠÃİ": 59108,
  "-events": 53803,
  "ĠCharset": 87871,
  "ï¬¬": 151159,
  "Ġorange": 18575,
  "çłĨ": 122443,
  "_CHECK": 11780,
  "Ġresearching": 44143,
  "Ġscams": 63055,
  "Ġproud": 12409,
  "åĸı": 120645,
  "ãģłãģ¨æĢĿãģĦãģ¾ãģĻ": 132066,
  "ĠÃľniversites": 133697,
  "_thumb": 46352,
  "å°ĳè§ģ": 115448,
  "ĠClassified": 79436,
  "æ½¤": 116603,
  "à¸Īà¸±à¸ĩ": 126630,
  "ìĭľìĬ¤": 134619,
  "éĺ¿éĩĮå·´å·´": 107076,
  "%;čĊ": 72086,
  "æĲľæķĳ": 118131,
  "Ø´Ø§ÙĩØ¯": 131088,
  "alÄ±ÅŁ": 72969,
  "Descriptors": 58553,
  "ĠInstructions": 38297,
  "Ġterre": 86926,
  "Ġsafely": 21000,
  "ÑĩÐµÐ¼": 127090,
  "Ġjq": 44648,
  "rad": 13281,
  "ĠActiv": 14708,
  "çĽ¯": 101699,
  "ĺìĿ´": 62618,
  "à¸Īà¸±à¸ļ": 130522,
  "åłķ": 119022,
  "Ġtá»±": 128377,
  "å¤§éĩıçļĦ": 101514,
  "é³į": 119521,
  "Hierarchy": 85264,
  "ĠII": 7946,
  ";t": 53747,
  "ãĤīãģĦ": 126486,
  "å¥³ç¥ŀ": 107697,
  "Ġevid": 5226,
  "jos": 39161,
  "éĴĭ": 119713,
  "pins": 74558,
  "ason": 1497,
  "(depth": 53675,
  "à¹Ģà¸£à¸²à¸Īà¸°": 133948,
  "ĠTD": 27716,
  "ĠperÃŃodo": 86624,
  "ĠTro": 19321,
  "sexo": 83180,
  "ëĭ¢": 147419,
  "ÙĬÙĬÙĨ": 126319,
  "âĮ¦": 150664,
  "×¢×ĵ×Ļ×£": 138165,
  "å°±å¾Ī": 110929,
  "RIPT": 27210,
  "å¸ĸåŃĲ": 110932,
  "ĠØ§ÙĦØ·ÙĦ": 140122,
  ".getConfig": 59758,
  "èĳĹ": 99610,
  "ĠbÃŃ": 132642,
  "colm": 41837,
  "()){čĊ": 42519,
  "ĠSpread": 47716,
  "_GPU": 68716,
  "èĹ¤": 106031,
  "Land": 41957,
  "çī©èģĶç½ĳ": 105768,
  "ĠpossÃŃvel": 63181,
  "ĠæĬ": 96155,
  "çľŁå®ŀçļĦ": 107573,
  "VERIFY": 46223,
  "_tiles": 60857,
  "_Reg": 49384,
  "Ġì§Ģê¸Ī": 129082,
  "Ġ*))": 97591,
  "ĠØ§ÙĦÙĴ": 130049,
  "Ġarte": 51348,
  "×Ĺ×ķ×ľ": 131898,
  "ĠrÆ°á»£u": 136288,
  "oba": 26833,
  "Ġmoderator": 59427,
  "ĠÐ¼Ð¾Ð¼ÐµÐ½ÑĤ": 130486,
  "entialAction": 57971,
  "/c": 2899,
  "Ġconsul": 74189,
  "æ¡ĥåľĴ": 118830,
  "<hr": 43663,
  "ðŁĦ": 124754,
  "åľ¨åŃ¦æł¡": 109610,
  "_issues": 90232,
  "åı¯ä»¥çĽ´æİ¥": 110318,
  "ĠØ£ØºØ³Ø·Ø³": 138246,
  "rÃ¤u": 137994,
  "ðŁĹ¼": 148272,
  "éĺ²": 99287,
  "Convention": 44932,
  "Ġdisappointing": 38123,
  "Ġ;)": 73131,
  "ìĶ¼": 149438,
  "ĠJane": 21475,
  "ĠMonitor": 23519,
  "Ġamidst": 64804,
  "lime": 38943,
  "ìĸľ": 149775,
  "Ġsize": 1379,
  "çķİ": 120114,
  "é£½": 119101,
  "Ã´nica": 140717,
  "å¾Įãģ«": 132723,
  "åĳ³": 99375,
  ".PackageManager": 84816,
  "Attrs": 53671,
  "å¸ı": 119706,
  "Ø§Ø¨Øª": 130741,
  "resolve": 17325,
  "ðŁĺ": 75360,
  "Ġativ": 68332,
  "Others": 50054,
  "imbabwe": 43181,
  "åºĸ": 119936,
  "ĠBahamas": 83129,
  "askets": 48140,
  "áĭ³": 150505,
  "ĠWRITE": 38552,
  "ĠWhere": 10967,
  "amage": 9617,
  "ĠVor": 33328,
  "å¤ļåħĥ": 102548,
  "éĵ¾": 63314,
  "wiÄĻks": 126565,
  "à¸ģà¸²à¸£à¹Ģà¸¥à¹Īà¸Ļ": 135753,
  "çį¨": 103093,
  "éĤĬ": 101535,
  "ĠREC": 74136,
  "Ġêµī": 142660,
  "Ġsquat": 57470,
  "æľªæĽ¾": 114858,
  "Sure": 39814,
  "ĠnewY": 80384,
  "å¹»": 100320,
  "navbarDropdown": 98311,
  "(notification": 54880,
  "Ġeid": 68331,
  "áįĪ": 150265,
  "Ġcancelling": 96915,
  "ĠØ¨ÙĥÙĦ": 132319,
  "Ġsam": 9962,
  "ĠRADIO": 82160,
  "ðŁĸ¥": 147931,
  "Ġ&'": 30136,
  "ĉfilter": 50108,
  "ĠHp": 87833,
  "ln": 2261,
  "Ê³": 145781,
  "åįķçº¯": 103148,
  "ĠmÃ³c": 140703,
  "ØªØ´Ùĥ": 134109,
  "ĠEnlightenment": 91831,
  "having": 68566,
  "×¤×Ļ×Ļ×¡": 127733,
  "Ġenvoy": 59530,
  "ĠWild": 13630,
  "ĠCur": 12886,
  "à¸£à¸±à¸Ĳà¸ļà¸²à¸¥": 133900,
  "å¯Ĳ": 121065,
  "Ġnoop": 60829,
  ")();Ċ": 83917,
  "Ġcanc": 62309,
  "Agent": 16810,
  "ĠAF": 19885,
  "shows": 59456,
  "Folders": 92779,
  "à¤Ĥ": 72314,
  "ĠNÂº": 140124,
  "ĠFriedman": 61358,
  "Ð¿ÐµÐ´": 139503,
  "ĠRelief": 52395,
  "ÓĤ": 150369,
  "ç©ºä¸Ń": 105438,
  "GLISH": 64418,
  "/master": 23303,
  "ision": 1816,
  "ĠSEAL": 87579,
  "ĠSid": 33889,
  "ĠmarginTop": 22828,
  "?$": 46311,
  "å¥³æĢ§": 101968,
  "jac": 86131,
  ".viewport": 77160,
  "Base": 3978,
  "iculty": 25990,
  "ĠLinda": 38062,
  "Ġaccumulating": 91585,
  "ìĸı": 146129,
  "Ġpitched": 48998,
  "éĢħ": 120165,
  "Ġmetaph": 30668,
  "ĉMat": 70068,
  "ĠOMG": 97545,
  "Govern": 77606,
  "Ġmilling": 45372,
  "Ġdeciding": 29130,
  "æĥ³æ³ķ": 102622,
  "ĠÄĳÃªm": 131571,
  "×ĵ×Ĳ×Ĵ": 138754,
  "veillance": 60300,
  "Ġstarch": 69081,
  "Ġcatchy": 85505,
  "Ġmeasures": 10953,
  "AO": 18746,
  "Ġ×Ļ": 123872,
  "ĠBoyd": 62621,
  "ĠBCE": 78577,
  "×ŀ×ķ×ł×Ķ": 126806,
  "Ġvanilla": 32065,
  "åħĭæľį": 106268,
  "ðŁĪ": 126193,
  "numer": 75596,
  ".uk": 15194,
  "[];ĊĊ": 40901,
  "cour": 66871,
  "à¸Ľà¹īà¸Ńà¸ĩà¸ģà¸±à¸Ļ": 132108,
  "Ġregulatory": 22515,
  "ä½Ļäºº": 107324,
  "Intialized": 81736,
  "Ġenergy": 4802,
  "Chooser": 36557,
  "æĹłéĶ¡": 106180,
  "_MAN": 25143,
  "ÚĦ": 149969,
  "Ġon": 389,
  "æľĢåĪĿ": 102965,
  "(TAG": 15989,
  "ç°½": 113230,
  "Ġstylish": 31361,
  "è¾īçħĮ": 106011,
  "(/": 9921,
  ".Vector": 14286,
  "/plugin": 51372,
  "ĠtÃ©c": 86163,
  "Ġevt": 12358,
  "ĠMSD": 71395,
  "---------Ċ": 28447,
  ".readInt": 51890,
  "ä¸īåĪĨä¹ĭä¸Ģ": 113690,
  "ĠFinch": 95233,
  "Ð¸ÑĤÐµÐ»ÐµÐ¹": 131605,
  "_lst": 31983,
  "æĸ¹å½¢": 113937,
  "Ġpays": 21241,
  "_j": 5374,
  "Ġcoded": 46673,
  "Area": 8726,
  "_dual": 96772,
  "JSONObject": 23596,
  "(insert": 60586,
  ".play": 12972,
  "Ġimmutable": 51572,
  "Ãºmer": 21606,
  "ÑĢÑĥÑģ": 129089,
  "ChartData": 95367,
  "æľīè¶³å¤ŁçļĦ": 115331,
  ".And": 31164,
  "âĬ¥": 147296,
  "Ø±ÙģØ¶": 131899,
  "(acc": 48455,
  "ãĢĤĊĊ": 3407,
  ".enums": 46194,
  "ĠEgypt": 14867,
  "åĬ¿å¿ħ": 112356,
  "ĠNIC": 64215,
  "Ġbitcoins": 57002,
  "æĢ¥æķĳ": 110430,
  "Ġrodents": 93109,
  ")}Ċ": 10569,
  "Ġenjoys": 31738,
  "ucceed": 29264,
  "ĠToday": 11201,
  "_palette": 66252,
  "Ġpraising": 80578,
  "ĠayrÄ±ca": 137241,
  "orgt": 82751,
  "NotNull": 11005,
  "ĠPost": 3877,
  "ĠÙĪØ¹ÙĦÙī": 131247,
  "Periph": 95365,
  "å¾Īéļ¾": 104083,
  "'),ĊĊ": 52338,
  "_yes": 59744,
  "Ġhá»£p": 128319,
  "firefox": 97912,
  "_panel": 24570,
  "æ»ģ": 121056,
  "é²Ĭ": 123224,
  "æľªå©ļ": 115349,
  "becue": 51985,
  "ĠPatriot": 66931,
  "Ø¬ÙħØ§ÙĩÙĬØ±": 140657,
  "ĉmat": 59874,
  "èĥ½èĢĹ": 112038,
  "edi": 19048,
  ")i": 47717,
  "ìĬ¤íĥĢ": 141274,
  "ording": 2678,
  "alles": 95929,
  "µľ": 71481,
  "affen": 71378,
  "á¶¢": 149604,
  "essor": 8309,
  "ëĻĩ": 149745,
  ")}ĊĊ": 73822,
  "Ġstrengthening": 47413,
  "ï¼±": 144344,
  "_prob": 20794,
  "Ð¾Ðµ": 43767,
  "å®¶ä¼ģä¸ļ": 106328,
  "-copy": 66140,
  "ĠInterval": 40584,
  "ĠStrom": 92603,
  "çº¢": 99425,
  "æŃ£ç¢º": 113564,
  "ĠĠĠĠĠĠĠĠĠĠĠĠĠĠĠĠĠĠĠĠĠĠĠĠĠĠĠĠĠĠĠĠĠĠĠĠĠĠĠĠĠĠĠĠĠĠĠĠĠĠĠĠĠĠ": 25773,
  "Ġinterrogation": 65265,
  "Ġcollapsed": 28268,
  "çĻ½èıľ": 111822,
  "æĺ¯æ¯Ķè¾ĥ": 110726,
  "á½³": 145363,
  "Ġapare": 55170,
  "Ġneutr": 41599,
  "Ġmotiv": 12242,
  "Precision": 55501,
  "ouncil": 6690,
  "ulerAngles": 58752,
  "åįĬå¯¼ä½ĵ": 107371,
  "Ġcomes": 4041,
  "éľ¸çİĭ": 115560,
  "Ġdiner": 88106,
  "é«": 99291,
  "eliminar": 88256,
  "æĶ¾åŃ¦": 114382,
  "_endpoint": 36699,
  "Ġtangled": 92841,
  "ĠsonuÃ§": 131900,
  "ĠSharma": 60015,
  "åĽ½èµĦå§Ķ": 107506,
  "_POINT": 27407,
  "âĮĵ": 150247,
  "Ġhac": 53695,
  "centage": 16133,
  "Ġelders": 60676,
  "/M": 10270,
  "Ġlistened": 33693,
  "omon": 34585,
  "åĬłå¿«åıĳå±ķ": 114748,
  "çīĽ": 100664,
  "ĠGran": 26524,
  "ĠComey": 34978,
  "åĢ¡è®®": 108465,
  "-model": 28244,
  "wit": 88519,
  "MASK": 49863,
  "Ġshe": 1340,
  "âĶĵ": 146064,
  ".FileInputStream": 64372,
  "à¸£à¸¸à¹Īà¸ĩ": 140198,
  "breaking": 36657,
  "Ġvehicles": 11474,
  "Ã¢Ì": 138673,
  "ĠHang": 40775,
  "ĠÐ±Ð°": 128986,
  "sip": 88250,
  "reason": 19895,
  "Binary": 21338,
  "exist": 28575,
  "ToListAsync": 94499,
  "ĠìĹĨìĬµëĭĪëĭ¤": 136673,
  "ì²¼": 145154,
  ".Flush": 61559,
  "ðĿĴĮ": 149149,
  "ĠYas": 69928,
  "ÙĤÙĬØ§Ø¯Ø©": 132748,
  "ëģħ": 150876,
  "ä¿¡æģ¯": 27369,
  "ĠÐ³ÑĢ": 140911,
  "ç½ĳç»ľå®īåħ¨": 109939,
  "é³ĳ": 123696,
  "anime": 94670,
  "Ã¡rio": 19774,
  "Ġobliged": 53017,
  "Ġversion": 2319,
  "ĠGIR": 85009,
  "à¸·à¸Ļ": 125233,
  "IFDEF": 83881,
  "Ġintval": 26217,
  "hoff": 93304,
  "Ġtip": 11552,
  "Ġ');Ċ": 25624,
  "ĠØ§ÙĦÙħØª": 128631,
  "Ġannotation": 21223,
  "ãĤīãĤĮ": 124408,
  "Ġmodifications": 28782,
  "Ġë§": 32985,
  "×¦×Ļ×Ŀ": 129322,
  "ĠGratis": 23775,
  "æłĴ": 122602,
  "çłµ": 122606,
  "Ġ.ĊĊ": 6762,
  "INV": 62931,
  "ä¸ªå°ı": 110026,
  "Ġprocure": 79679,
  "ØªØ´ØºÙĬÙĦ": 134488,
  "ustria": 84812,
  "Ġremodel": 45986,
  "ĠolduÄŁu": 128508,
  "Ġobsc": 25647,
  "ãĥĵ": 90382,
  "Ġprz": 21254,
  "Slides": 73758,
  "_cons": 31971,
  "ĠRedirectTo": 26641,
  "ç§¯æŀģæĢ§": 103391,
  "unsigned": 3626,
  "éķ¥": 123620,
  "Ġ//#": 49780,
  "izes": 4756,
  "Ġspouse": 30980,
  "Ġkeeping": 10282,
  "çĸ¤çĹķ": 114349,
  "ĠØ§Ø®ØªÙĬØ§Ø±": 136838,
  "ĉSDL": 38833,
  "_PAD": 36451,
  "ĠÐ²Ð¾Ð·": 85191,
  "(\"</": 31601,
  "ĠDepart": 39755,
  "_MANY": 97374,
  "ĠHairst": 88315,
  "_MetadataUsageId": 67031,
  "à¸Ĭà¸§à¸Ļ": 137818,
  "ãģįãģ¡": 139018,
  "éĻ¬": 120526,
  "ĠPanc": 96214,
  "Ġnotifies": 96589,
  "Trademark": 87662,
  "èĸ¹": 121856,
  "Ġyeti": 143417,
  "'][$": 18159,
  "Ġ×ĳ×¤×ł×Ļ": 131995,
  "Ġacad": 10406,
  "ĠConnected": 49486,
  "Ġdisguise": 63981,
  "ãī¤": 148257,
  "ĠSeeder": 70738,
  "èĪªç©ºåħ¬åı¸": 109466,
  "å¥¶ç²ī": 107706,
  "ĠNODE": 34817,
  "ìĵ´": 144128,
  "åĲĪèµĦåħ¬åı¸": 118896,
  "éĿĴæµ·çľģ": 117781,
  "ĠSDK": 26623,
  "ĠroÅĽ": 139443,
  "ë¶Ĳ": 145120,
  "ë·ģ": 150015,
  "Ġfiltro": 74485,
  "ler": 1536,
  "ÉŁ": 148120,
  "ricia": 45191,
  "Ġdemolished": 75893,
  ">>::": 77595,
  "Ĝ": 216,
  "ðĿļŀ": 148154,
  "â½Ĭ": 150148,
  "ÙĪØ¨": 124495,
  "ĠHB": 39701,
  "_function": 9174,
  ".getServer": 81951,
  "<Article": 94932,
  "åħ¬å®īå±Ģ": 101637,
  "åıĶåıĶ": 109569,
  "åıĤä¸İåĪ°": 113965,
  "CALL": 25427,
  ".Conv": 34025,
  "opot": 88390,
  "Ġbonuses": 32221,
  "ĠIDE": 27975,
  "Ġacab": 66062,
  ">().": 10483,
  "Ġelectro": 24394,
  "NYSE": 67345,
  "ĠÃ¢": 27905,
  "æ£ļ": 103031,
  "æ¶Ł": 120497,
  "æŃ¦å£«": 118912,
  "Ġroasted": 53562,
  "Ġoak": 37871,
  "×©×Ļ×ŀ×ķ×©": 133565,
  "LINE": 8265,
  "ĠMGM": 98391,
  "ÑįÑĦÑĦÐµÐºÑĤ": 134785,
  "TAIL": 26672,
  "ĠEstablish": 39398,
  "Nh": 79759,
  "Ġaudiences": 29894,
  "();ččĊ": 92149,
  "Ġzza": 97649,
  "aned": 51430,
  "âĢľ": 2073,
  "äºĶåįģ": 106355,
  "ĉĉĠĠĠĠĠĠĠĠĠĠĠĠĠĠĠĠĠĠĠ": 71400,
  "ĠÐ¶Ð¸Ð·": 126768,
  "Ġcir": 29470,
  ".Inv": 68401,
  "åįķä¸Ģ": 106215,
  "_coord": 30096,
  "åĵĪåĵĪåĵĪåĵĪ": 118687,
  "POWER": 61336,
  "_valid": 8337,
  "Ġstates": 5302,
  "ĠBa": 14322,
  "ç³Ĵ": 123574,
  "ĠSever": 58216,
  "ĠwxString": 56616,
  "ĠWilliam": 12375,
  "Ġinert": 79973,
  "ð«Ń¢": 122190,
  "$input": 77228,
  ".');čĊ": 78254,
  "ä¸ĩäºĭ": 115221,
  "Ġcourtyard": 65285,
  "us": 355,
  "Ġneur": 21164,
  "à¸łà¸²à¸¢à¹ĥà¸Ļ": 129648,
  "_km": 88680,
  "isbn": 66438,
  "æ¹ĸäºº": 107982,
  "Ġcelular": 87126,
  "Ø¯ÙĬØ±": 125237,
  "à¸ªà¸¡à¸²à¸Ħà¸¡": 141895,
  "omain": 3121,
  "Ġnett": 27770,
  "Ġempir": 37869,
  "ĠíĻľìļ©": 140969,
  "çĹħåıĺ": 112140,
  "Ġhinder": 56680,
  "Ð½Ð¾Ñģ": 128928,
  "ĠGerry": 90987,
  ".iterator": 28983,
  "ĉgroup": 44260,
  "çŃĨ": 109070,
  "Ġpstmt": 49575,
  "ĠĠĠĠĠĠčĊ": 17260,
  "ÑĢÐ¾Ðº": 127147,
  "ëª¯": 149089,
  "ç¼¬": 121694,
  "è¾¾": 93488,
  "CONNECT": 39521,
  "ÑİÑīÐµÐµ": 135491,
  "ĠseguranÃ§a": 133665,
  "âĸ®": 149049,
  "çļĦæľºä¼ļ": 104571,
  "require": 4310,
  "fw": 20564,
  "ĠIH": 45311,
  "%;Ċ": 15912,
  "Chunks": 89681,
  ".avi": 84552,
  "à¸łà¸²à¸ŀà¸¢": 138220,
  "ses": 9275,
  "ĠPAN": 72281,
  "Sign": 7264,
  "atak": 68728,
  "ä»¥å¤ĸ": 105175,
  "Ġfermented": 94980,
  "ä¹Ŀå¤§": 114363,
  "Ġenjoyable": 31080,
  "Ġbind": 10719,
  "Ġ×Ľ×ľ×Ļ": 135140,
  "/input": 39990,
  "Ð¿Ð»Ð°Ñĩ": 143883,
  "ENSION": 23636,
  "otropic": 78332,
  "ĠEffective": 46923,
  "\\L": 75138,
  "Ġsurpassed": 67228,
  "Ġautor": 26767,
  "ĠUSED": 65217,
  ".cv": 75948,
  "lsen": 59988,
  "Ġamazed": 45204,
  "edic": 33283,
  "licant": 35237,
  ":text": 34952,
  "ĠComplete": 18608,
  "ĠquizÃ¡": 143876,
  "ãģ«è¡Įãģ£ãģ¦": 135458,
  "ĠØ§ÙĦØ£Ø®Ø±Ùī": 132893,
  "ductor": 35769,
  "å»ºè®¾å·¥ç¨ĭ": 110794,
  "xD": 15764,
  "_username": 21588,
  "Ġwitty": 82633,
  "DIG": 86929,
  "_CREATE": 25823,
  "å¥ī": 102423,
  "Ġtall": 16217,
  ".BooleanField": 43743,
  "Ġpainfully": 75599,
  "ëĶ±": 144106,
  ".setResult": 93519,
  "olesale": 42507,
  "Ġmaxi": 76968,
  "Ġtangent": 68660,
  "utherford": 92994,
  "Ġtransparency": 27231,
  "Ã¶h": 84251,
  ".Filters": 77714,
  "nge": 84490,
  "èĴ¿": 119245,
  ".types": 23226,
  "Ġdepois": 65388,
  "(Paint": 95274,
  "ĠBender": 96545,
  ">No": 41157,
  ".grad": 41356,
  "æĹĹä¸ĭçļĦ": 111477,
  "Ġlung": 20622,
  "Ġreinstall": 91861,
  "ĠbuttonWithType": 83824,
  "multip": 77976,
  "(encoded": 76270,
  "RecognitionException": 92472,
  "ÅŁek": 127553,
  "resse": 21797,
  "(company": 58384,
  "ĠâĦĿ": 86023,
  "è¾ĳ": 46939,
  "ĠÑħÐ¾ÑĤ": 125351,
  "Stephen": 53824,
  "é²¿": 123643,
  "×ķ×¤×Ļ×¢": 131497,
  "(cli": 70249,
  "å§»": 102319,
  "Ġapproached": 24706,
  "Ġderp": 66391,
  "åŀŀ": 122411,
  "ĠPoland": 27602,
  "æĸĩçī©": 102609,
  "ĠmÅĤod": 127434,
  "Ġservlet": 36496,
  "Near": 51962,
  ".Destroy": 57011,
  "Ð³Ð»Ð°Ñģ": 141778,
  "(stats": 50714,
  "Ġratified": 96565,
  "Sugar": 83414,
  "Ġnova": 40534,
  "à¸¥à¸Ńà¸ĩ": 126489,
  "([]);ĊĊ": 93490,
  "ëŀĴ": 150299,
  "ðŁĺĥ": 144858,
  "Ġstocked": 70016,
  "Ġnab": 72691,
  "ĠÙĤÙĬÙħØ©": 138272,
  "åıªæĢķ": 114594,
  "ÚĤ": 150387,
  "Ġinadvertently": 69085,
  "æľĢä¼ĺ": 115130,
  "strup": 89399,
  "-url": 25443,
  "çĮ": 99177,
  "ĠPluto": 77581,
  "å¯¼èĪª": 105544,
  "ĠÑĢÐ¾Ð¼Ð°Ð½": 143725,
  "ĠÐ¿Ð¾ÑģÑĤÐ¾Ñı": 127768,
  "éªĸ": 120838,
  "ĠCreates": 14684,
  ".Assign": 86971,
  ".likes": 80170,
  "çĩ": 99301,
  "Actual": 28123,
  "yst": 597,
  "_qual": 64391,
  "Æ¡Ìģ": 141628,
  "ĠWorship": 86122,
  "Ġìĭ¤í": 60985,
  "ĠÐ´ÐµÑĤÐµÐ¹": 130963,
  ">this": 89810,
  "×ĳ×¨×Ķ": 126745,
  "Ġsimplest": 44548,
  ".decorate": 80052,
  "FORCE": 80205,
  "ä¸ºå¥ĳæľº": 111214,
  "ĠHungarian": 56769,
  "ĠmÄĻÅ¼": 138603,
  "ĠOwned": 85093,
  "ĠÙģÙĤØ·": 129346,
  "ĉid": 15710,
  "ĠCoca": 62854,
  "æ°Ķä½ĵ": 107155,
  "Ġdá»ĭch": 128507,
  "è¶ħè¿ĩ": 100381,
  "éģµå¾ª": 106466,
  "ìĽ¡": 147389,
  "æ°ĳæĶ¿å±Ģ": 117558,
  "\"profile": 36105,
  "callback": 13494,
  "×Ĳ×ķ×Ĵ×ķ×¡×ĺ": 143192,
  "Ġtekn": 80026,
  "\\Contracts": 43318,
  "ĠÑĤÐ°ÐºÐ¾Ð³Ð¾": 137566,
  "ĠArbit": 58795,
  "Ġplacement": 21448,
  "_TRUNC": 94642,
  "è§ģéĿ¢": 105838,
  "ĠìĪĺ": 28733,
  "Ġfend": 94027,
  "bbing": 67341,
  "ecer": 93118,
  "à¸¥à¸±à¸ļ": 126978,
  "Ġdecorator": 50678,
  "CENT": 36338,
  "é«ĵ": 103661,
  "IJ": 76686,
  "ĠHow": 2585,
  "âĢ¦the": 93418,
  "×ŀ×¨×§": 140514,
  "ï¥Ļ": 151128,
  "Ġwireless": 20739,
  "â²Ģ": 148159,
  "à²Ł": 151521,
  "èĥ": 90839,
  "Ġchiropr": 76201,
  ".tintColor": 82600,
  "ç§ĳå®¤": 110200,
  "ðŁĩµ": 145516,
  "-automatic": 94473,
  "ëĹ´": 149456,
  "ordes": 80392,
  "/Area": 85341,
  "ĉor": 81166,
  "íĻ±": 148532,
  "ÎĲ": 147088,
  "çĽ¸è§ģ": 116999,
  "ĠPension": 80457,
  "(iter": 27070,
  "ĠPredictor": 60418,
  ".',čĊ": 97469,
  "Ġdisruptive": 61542,
  "Ġauc": 45953,
  "Ø±Ø¨Ø¹": 125966,
  "Ġib": 18668,
  "ĠAthens": 45826,
  "çĸ°": 122683,
  "ĠPlant": 17838,
  "Ġpracticed": 43564,
  "ails": 6209,
  "-G": 12010,
  "_submenu": 96733,
  "surface": 39746,
  "ĉĉĉĉĉĉĠĠ": 41982,
  "ĠShaw": 35185,
  "ĠGefÃ¼hl": 141176,
  "çŀŃ": 101840,
  "_GO": 39622,
  "astically": 35319,
  ".alert": 20510,
  "Ġsinks": 56952,
  "é²º": 123566,
  "ØªÙİ": 130944,
  "oreal": 89768,
  "æĽ´å¼º": 108858,
  "ĠfindById": 59525,
  "ĠSchools": 30383,
  "Ġgaan": 61613,
  "íİı": 149985,
  "ĠcÃ´": 128434,
  ":L": 69233,
  ".it": 15593,
  "avigate": 10379,
  ".Reference": 58416,
  "ØµÙĬØ§ÙĨ": 143712,
  "Ġfiat": 53830,
  "(ship": 91399,
  "çĦ¼": 139434,
  "PM": 8795,
  "æĻ¯": 85254,
  "-ext": 66103,
  "prop": 2674,
  "å½ª": 111809,
  "ãĤ·ãĥ§ãĥ³": 125287,
  "Ġdevs": 80069,
  "ĠfileId": 91261,
  "IFORM": 65284,
  "ÙĤÙĪØ§ÙĨÙĬÙĨ": 139126,
  "clear": 7422,
  "ãģ®ãģ«": 129173,
  "ĠTechn": 7001,
  "åħ±äº§åħļ": 105126,
  "âĶļ": 150687,
  "Lt": 87660,
  "ĠiconName": 89877,
  "_clusters": 46243,
  "osh": 9267,
  "ĠsetPassword": 53115,
  "ĠART": 33879,
  "ĠManaging": 48307,
  "ĠAdoles": 62637,
  "é«ĺä¸ī": 111011,
  "à¸Ķà¸´": 126638,
  "ĠÐłÐµ": 129170,
  "(My": 37485,
  "ĠåĽ": 49602,
  "ê¹Įì§Ģ": 128878,
  "Ġcoalition": 25217,
  "ĠCourse": 16615,
  "ðŁĲ¬": 147256,
  "ä¸¾èµ·": 114209,
  "éĤ£": 99212,
  "Ġchampionship": 21553,
  "ãĥĳãĥ³": 130459,
  "Ġcompile": 19192,
  "getRequest": 39397,
  "$i": 33119,
  "çĪĨæ¬¾": 115589,
  "Ġemitter": 47263,
  "ĠMainMenu": 77171,
  "grpc": 56585,
  "Ġxml": 8396,
  "ĠDistributed": 43955,
  "(Module": 75295,
  "Ġtiled": 81870,
  "ĠEbook": 88671,
  "Ġentries": 10695,
  "_);ĊĊ": 50640,
  "Ġunresolved": 80161,
  "æĽ´æľī": 104885,
  "à¸Ńà¸±à¸ĩ": 127885,
  "äº§çĶŁçļĦ": 102710,
  "é»ĥ": 106788,
  "Ġfunny": 15173,
  "åįģå¤ļ": 111125,
  "Ġprintk": 58323,
  "Ġbursts": 65701,
  "Ġcomp": 1367,
  "ĠTEMP": 57431,
  "ĠÐ¿ÐµÐ´": 142553,
  "Ġrdf": 66065,
  "iny": 6441,
  "Ġbelongs": 17180,
  "åªŃ": 120993,
  "ë³½": 149092,
  "Ð¾Ð²Ð¾Ð¹": 128939,
  "éķ©": 121899,
  "may": 18358,
  "ĠediÃ§Ã£o": 138226,
  "à¸ªà¸±à¸įà¸įà¸²": 127778,
  "Ġgrandma": 82677,
  "pek": 87176,
  "Ġambitions": 50466,
  "Up": 2324,
  "ĠktÃ³ra": 82121,
  "Ġreass": 31734,
  "ĉĉĊĊ": 34149,
  "ĠdidSelectRowAtIndexPath": 95607,
  "ç¬ª": 120716,
  "ĠFRAME": 56416,
  "ĠaÅŁama": 139898,
  ".Update": 16689,
  "<<\"": 7753,
  "Ġà¸ģà¸£à¸ģà¸İà¸²à¸Ħà¸¡": 143868,
  "Ġbg": 8951,
  "leground": 64766,
  "éģ¹": 123505,
  "×Ĺ×Ķ": 124560,
  "?>\">Ċ": 42071,
  "DETAIL": 85799,
  "ä¸ĢéĹ¨": 109747,
  "ĠisSelected": 61441,
  "ĠâĢĿĊĊ": 66786,
  "/export": 66948,
  "-food": 63467,
  "ä¸Ģå¹ħ": 107814,
  "_hold": 65824,
  "Ġspectacle": 56791,
  "ATAL": 30074,
  "Ġstature": 76623,
  "bra": 14383,
  "Ġ=\"\";Ċ": 98737,
  "ĠEid": 85744,
  "è´«ç©·": 113327,
  "verbs": 54939,
  "ê¼¬": 144326,
  "ĠSYSTEM": 34752,
  "àª": 40714,
  "èĬ": 44851,
  "Ġregard": 5250,
  "ĠrÃ³Å¼": 79944,
  "assertSame": 37774,
  ".NONE": 42703,
  "')):Ċ": 73964,
  "Ġamph": 64992,
  "å¤¸å¤§": 118437,
  "ĠStrength": 31837,
  "Ġfj": 75371,
  "é»İ": 101521,
  "SEMB": 77373,
  "Ġtwisted": 37717,
  ":test": 84476,
  "åıĺåİĭ": 113102,
  "earchBar": 92336,
  "Ġduo": 33721,
  "åıĳçĹħ": 103202,
  "ä½¿ãģĨ": 135532,
  "ç§ĳå¹»": 110000,
  "ĠThought": 35187,
  "ä½Ĩ": 77288,
  "_AMOUNT": 59993,
  "ĠPuppy": 95533,
  "agem": 14661,
  "_easy": 59091,
  "âĴº": 149664,
  "Ġdrawing": 13330,
  "ĠJulie": 41187,
  "âļľ": 145669,
  "Ġconsultant": 30660,
  "responseObject": 86006,
  "ĉtest": 18185,
  "goog": 39858,
  "Mana": 77735,
  "ERE": 42172,
  "Ġeditions": 46534,
  "ĠíĸīëıĻ": 140692,
  "edd": 53537,
  "Ġreminiscent": 54985,
  "opsy": 48192,
  ".nextElement": 78511,
  "ĠthÃ¢n": 128672,
  "éĿŀå¸¸åĸľæ¬¢": 115171,
  "ellant": 77141,
  "ä¸ľäº¬": 107513,
  "Devices": 40835,
  "attachments": 45878,
  "è¿Ŀæ³ķè¿Ŀè§Ħ": 114129,
  "è¢ª": 122718,
  "Ġrotten": 77692,
  "ĠÅĵ": 98125,
  "ä¼ĺè´¨çļĦ": 107220,
  "ðŁ¥Ľ": 147739,
  "æ³ī": 100081,
  "ãģķãĤĵãģ®": 129830,
  "ĠGa": 18373,
  "hum": 27300,
  "odic": 52760,
  "âĻ»": 145328,
  "(pos": 12259,
  "/dat": 37566,
  "Ġfot": 31840,
  "Ġreferral": 44780,
  "Ġsausage": 58886,
  "Ġconstrained": 53752,
  "Ù²": 145990,
  "ĠëĶ°": 125686,
  "_Last": 84672,
  "Ġtapped": 48423,
  "txt": 8586,
  "ĠElon": 68539,
  "Ġgig": 22583,
  "ĠyerleÅŁ": 141421,
  "tÃ³n": 134823,
  "ĠNSObject": 26209,
  "çļĦè®¤çŁ¥": 110061,
  "ĠScalia": 93649,
  "ÄŁÄ±": 43286,
  "ĠĠĠĠĊĠĠĠĠĊĠĠĠĠĊ": 41693,
  "áĲķ": 150060,
  ".transitions": 82936,
  "_pk": 33321,
  "WORDS": 94397,
  "/id": 38146,
  "ĠThÃ¡ng": 132493,
  "ĠSno": 92671,
  "Ġull": 52296,
  "ĠÐ±Ð¾Ð»ÑĮÑĪÐ¸Ð¼": 143936,
  "à¦¤": 147645,
  "ĠHorde": 70382,
  "æ³ķ": 24339,
  "åºĶçĶ¨ç¨ĭåºı": 113384,
  "Ġselection": 6589,
  "_instr": 62574,
  "Ġloyalty": 31783,
  ">();čĊčĊ": 51622,
  "âļŀ": 150712,
  "Ġaperture": 57001,
  "ĠÄĲi": 125807,
  "ä¹ĭå£°": 112130,
  "ryo": 96134,
  ".setType": 42433,
  "Ġ×ķ×©×ľ": 137293,
  "é¼»åŃĲ": 107508,
  "ĠEddie": 40680,
  "Ġeventually": 9583,
  "/Grid": 81696,
  "ãĤ¢ãĤ¦ãĥĪ": 139121,
  "äºĨ": 34187,
  "èĬĤçĤ¹": 92374,
  "-j": 13333,
  "âĬ¿": 147476,
  "ĠComposite": 40639,
  "Ã¤ge": 70668,
  "qtt": 32267,
  "åħ¬ä¸»": 105454,
  "åħ¨ä½ĵ": 102270,
  "Drv": 87847,
  "ÑĢÐ°Ð¶Ð°": 139445,
  "Ġunveiled": 38197,
  "Ġdelicious": 17923,
  "ulator": 10511,
  "æľīäºĨ": 101144,
  "çº¦": 94237,
  ".usage": 92694,
  "Ġfluct": 38288,
  "åıĮ": 99493,
  "outu": 50032,
  "_Private": 43830,
  ".setCancelable": 98847,
  "-ID": 53365,
  "Ġbicycle": 34986,
  "$LANG": 74379,
  "è¯¢": 38265,
  "Ġmiá»ĩng": 134214,
  "ĠÐ¸Ð½ÑĦÐ¾ÑĢÐ¼Ð°ÑĨÐ¸Ñİ": 137673,
  "ut": 332,
  "Ø¢Ø®Ø±": 136177,
  "çľ¼çľĭ": 112688,
  "usher": 51680,
  "Ġaqui": 43576,
  "_series": 35015,
  "åİĭè¿«": 115025,
  "ĠLGPL": 47529,
  ".ab": 22048,
  "_bool": 22159,
  "å¸ĥå°Ķ": 117661,
  "æľ¬èº«å°±æĺ¯": 114300,
  "ä¸įåĬ¨äº§": 113589,
  "ngoing": 85071,
  "-ab": 38030,
  "Ġnormal": 4622,
  "traditional": 86908,
  "ĠobjectType": 92802,
  "/kubernetes": 79587,
  ".putExtra": 20750,
  "èĮĥæĸĩ": 109089,
  "GPIO": 26337,
  "ÐºÑĨÐ¸Ð¸": 133224,
  "ðĴĦ": 151272,
  "æĭĻ": 114374,
  "ãģĹãģ¦ãĤĭ": 136056,
  "ĠWeber": 55520,
  "ĠÐ¸Ð½ÑĦÐ¾ÑĢÐ¼Ð°ÑĨÐ¸Ñı": 139493,
  "Ġgere": 66287,
  "ĠJacksonville": 47946,
  "é¼ł": 101547,
  "_opt": 15032,
  "Hair": 69693,
  "-Smith": 96238,
  "ãĤ°ãĥ«ãĥ¼ãĥĹ": 135825,
  "Runs": 73920,
  "measurement": 81425,
  "Wallet": 38259,
  "ä¸įå¦¨": 107303,
  "ãģ§ãģĻãģĹ": 132378,
  ".updateDynamic": 49110,
  ":create": 58584,
  "omic": 3075,
  "/co": 64942,
  "ĠMoran": 92235,
  "Ġdcc": 91279,
  "Ġ/*čĊ": 48666,
  "çĳĸ": 123127,
  "åķĨä¸ļåĮĸ": 114359,
  "}/${": 22805,
  "site": 9513,
  "<User": 16761,
  "inner": 4382,
  "å®¡è§Ĩ": 116581,
  "Ġ×Ķ×Ĳ×ľ×ķ": 139751,
  "ĠPou": 89023,
  "Ġsolidarity": 43154,
  "_state": 4387,
  "åĨįçĶŁèĥ½æºĲ": 114770,
  "iller": 15252,
  "åĩ": 12585,
  ".aut": 31055,
  ">A": 23465,
  "ĠÐ°": 20396,
  "(file": 4866,
  "ĠBeginning": 51850,
  "_NB": 80107,
  "çļĳ": 120731,
  "æĶ¿çŃĸ": 100138,
  "Ġconfigured": 19755,
  "éļ§": 103024,
  "ptest": 70334,
  "-case": 38485,
  "Ġdas": 6616,
  "Ġnacional": 57967,
  "Ġtraditionally": 35242,
  "autoreleasepool": 87422,
  "ç¢£": 121395,
  "Yeah": 23336,
  "Ġdemands": 18154,
  "çĸļ": 119339,
  "âĸ²": 140386,
  "ĠAngeles": 11902,
  "é³ł": 123768,
  ";amp": 19933,
  "Ġdumping": 60582,
  "ĠEqu": 11702,
  "$txt": 71709,
  "èĵĲ": 121124,
  "openhagen": 44829,
  "-hidden": 13306,
  "Ġteaspoons": 92100,
  "Ø±ÙĬÙĥ": 135935,
  "à¸łà¸²à¸ŀà¸¢à¸Ļ": 138221,
  "Ġexcept": 3650,
  "æĢĿç»ª": 118336,
  "ìŀĲëıĻ": 143994,
  "Ã¦": 9191,
  "éĿĴæĺ¥æľŁ": 118623,
  ".fs": 41355,
  "-D": 9420,
  "uby": 20028,
  "Ġtile": 10023,
  "Ġfiyat": 128102,
  "_BOTH": 82718,
  "Ġnesting": 66710,
  "Ġjoke": 21646,
  "Ġtragic": 34179,
  "ëĪĹ": 146289,
  "Ġswiftly": 55551,
  "periment": 14329,
  "ĠwithStyles": 63310,
  "ë¢¸": 147187,
  "ĠCapcom": 93553,
  "ĠPTS": 96261,
  "Ġbackup": 15725,
  ".moveToNext": 82889,
  "Ġcoeff": 17593,
  "çļĦéĢļçŁ¥": 105757,
  "ãĤıãģŁãģĹ": 137498,
  "Ġserta": 92619,
  "_REUSE": 91763,
  "à¸ļà¸³à¸£": 138368,
  ".IsTrue": 32672,
  ").'": 49422,
  "ĠØ§ÙĦØ¨ÙĬØ§ÙĨ": 138749,
  "ë³ķ": 145324,
  "ãĥĩãĤ¶ãĤ¤ãĥ³": 132131,
  "anonymous": 25280,
  "aves": 4693,
  ")',": 18733,
  "_ext": 9927,
  "åĳ£": 119874,
  ".Global": 27381,
  "-array": 62058,
  "_passwd": 88667,
  "âŁµ": 145499,
  "Ġìľł": 126310,
  "Ġexternally": 68342,
  "Um": 44667,
  "anj": 52091,
  "Ġdistr": 7905,
  "×§": 123792,
  "oured": 20394,
  ".DataVisualization": 88972,
  "ĠÐ¼Ð½Ð¾Ð³Ð¸Ñħ": 137908,
  "éħ¦": 122988,
  "ĠTaipei": 96345,
  "ðĿħª": 151292,
  "ventory": 7223,
  "æ·±å±Ĥ": 114246,
  "===============": 44908,
  "éŃĶæ³ķå¸ĪåĴĮ": 117864,
  "Stand": 48733,
  "Ġcurve": 15655,
  "Ġaveraging": 43764,
  "Ġmundane": 68682,
  "èĤ²åĦ¿": 112424,
  "ãģ£ãģŁ": 123857,
  "Ġdto": 28335,
  "zz": 10400,
  "ĠAmbassador": 44572,
  "_VEC": 70706,
  "æĥĬäºº": 108021,
  "ĠsignIn": 50995,
  "çĶ¨äºİ": 100751,
  "ä¸ĭæ¬¡": 107467,
  "ĠMarshall": 29408,
  "ï¾į": 144729,
  "oser": 23438,
  "getY": 52568,
  "ĠÐ½Ð°Ð¿ÑĢÐ°Ð²": 131584,
  "Ġtrespass": 74230,
  "ĠRhodes": 56611,
  "ÑĢÑĥÐ±": 127431,
  "cean": 11206,
  "ĠBrad": 17041,
  "ĠJesÃºs": 142115,
  "ç²¾é«ĵ": 113929,
  "ç§ĳåŃ¦æĬĢæľ¯": 107527,
  "_TOUCH": 74288,
  "utterstock": 62596,
  "ĠRally": 58700,
  "axes": 19992,
  "axed": 51451,
  "ì½¬": 151062,
  "express": 13788,
  "OLF": 86016,
  "achers": 26520,
  "åŁĹ": 122579,
  "ĠÐ¿Ð»Ð°ÑĤÐµÐ¶": 141706,
  ".Formatting": 40911,
  "ĠLes": 11615,
  "ëĴ¹": 145694,
  "Ġbiomass": 57658,
  "Opening": 51298,
  "æĭ¿æĿ¥": 113641,
  "Ġmagazine": 14418,
  "åĽŀåİ»": 104748,
  "éŁ³ç®±": 117738,
  "''.": 97622,
  "äºĭãģĮ": 132659,
  "nio": 92633,
  "Ġauthenticity": 53248,
  "Ð±": 9923,
  "ãĤĦãģĻãģı": 135323,
  "(field": 15573,
  "æĢ§åĳ½": 111493,
  "Der": 22171,
  "REG": 12173,
  "_ART": 59156,
  "ÐºÐ»ÑİÑĩÐ°": 133351,
  "andReturn": 65805,
  "Ġew": 36890,
  "Ġleaks": 36696,
  "ĠØ§ÙĦØ¨Ø¹": 137646,
  "æ·ĺæ±°": 103094,
  "Ġaugust": 70619,
  "Ġcdr": 88304,
  ".pem": 49373,
  "Ġrecognition": 17843,
  "Ġskill": 9947,
  "BJECT": 10467,
  ".bucket": 71626,
  "ĠFUNC": 43352,
  "-picker": 61146,
  "Ġmattress": 32226,
  "Unmarshaller": 87690,
  "Mill": 12328,
  "Ġtipos": 63862,
  "à¸Ľà¸±": 127007,
  "à»Ģ": 147377,
  "à¸¯": 126434,
  "é¸¶": 120549,
  "_CR": 24314,
  "ĠÐ±Ð»Ð°Ð³": 138422,
  "à¸¹à¹Ī": 124174,
  "ÙĦÙİ": 129909,
  "Ġshutting": 50026,
  "ĠGardner": 56629,
  "ĠAttributeSet": 57440,
  "ĠADMIN": 50235,
  ".hm": 78594,
  "ĠÑĥÐ²ÐµÐ»Ð¸": 136325,
  "ĠngÆ°Æ¡i": 133185,
  "ĠBat": 16098,
  ")/": 5620,
  "ä¼ļåľ¨": 105542,
  "íĽĪ": 138108,
  "æĴ¸": 121554,
  "ĠSection": 11113,
  "\">',Ċ": 71820,
  "Ġthermal": 28387,
  "ĠÙģÙĬ": 77273,
  "Ð²ÐµÐ´": 35650,
  "åĨĽäºº": 103199,
  "Ġcoatings": 90925,
  "_iface": 67666,
  "ĠaÄŁ": 127485,
  "ĠCathedral": 56729,
  "want": 52657,
  "éģĽ": 121268,
  "=u": 38633,
  "ĠPhilippe": 66854,
  "ĠReasons": 65031,
  "prevState": 66743,
  "Ġdots": 30994,
  "Ø³ØŃØ¨": 139480,
  "change": 3373,
  "ĠMACHINE": 86011,
  "Ġhighs": 53779,
  "Ġmanner": 11566,
  "_kw": 64496,
  "ĠTomorrow": 54996,
  ".putInt": 63151,
  "åĪĨãģĭãĤīãģªãģĦ": 140211,
  "Ġrushed": 32241,
  "ĠanÃ¡l": 71290,
  "á¼ĳ": 146655,
  "pretty": 32955,
  "mouth": 32680,
  "hÃ¤lt": 130655,
  "CppGenericClass": 56160,
  "ĠBDSM": 84750,
  "ĠTricks": 84176,
  "åĲĦèĩªçļĦ": 110206,
  "ĠTerrorism": 79664,
  "]]Ċ": 14288,
  "ĠJaw": 33194,
  "ĠdokÅĤadnie": 140344,
  "è®ĵæĪĳ": 113601,
  "å¯": 15600,
  "ANGLE": 37571,
  "Ġrecreational": 36000,
  "Ġìĸĺê¸°": 135940,
  "Ã³wi": 126750,
  "åŃĺéĩı": 109974,
  "ĠHeading": 51349,
  "ê²½ìĺģ": 142408,
  "âŃŀ": 150737,
  "ÙĦÙĤ": 128785,
  "ĠReed": 35421,
  "åİ¾": 119648,
  "à¸¡à¸²à¸£à¹Į": 136153,
  "Ġinfiltration": 97735,
  "İĺìĿ´ì§Ģ": 79427,
  "=r": 31120,
  "End": 3727,
  ".BASE": 34033,
  "AGES": 11238,
  "æłħ": 117217,
  "Ġvocabulary": 34918,
  "eral": 3253,
  "dek": 76273,
  "ĠPaging": 96038,
  "))/": 30085,
  "Ġcake": 19145,
  "-create": 39679,
  "eldon": 55043,
  "ÙĬÙĦÙĬ": 132063,
  "ĠSub": 3719,
  "Ġallowances": 89020,
  "NavigationItemSelectedListener": 98767,
  "-hole": 86593,
  "ĠbÃ©nÃ©ficie": 141361,
  "ĠMountains": 40014,
  "ãģ¦ãģĦãģŁ": 129821,
  "ìľ¼ë©°": 127378,
  ".GO": 97574,
  "_sentence": 48332,
  "Ġalt": 4797,
  "Damn": 95614,
  "å°¤ä¸ºéĩįè¦ģ": 118900,
  "ãģĤãĤĬ": 56803,
  "Ġ'*'": 30701,
  "-term": 9663,
  "Ġneurop": 97566,
  "ĠABS": 36481,
  "å¸Ĥä¸Ńå¿ĥ": 111622,
  "æ·»": 101481,
  "Ġ×Ķ×©×Ĳ": 140004,
  "Ġmined": 67668,
  "Ġapple": 23268,
  "Ġextremist": 55782,
  "à¸£à¸§à¸Ī": 127527,
  "Nor": 32663,
  "rema": 89718,
  "Ġsilhouette": 56727,
  "mouse": 13237,
  "ØªÙĨÙģÙĬØ°": 130380,
  "ĠBolivia": 76610,
  "Ġcup": 10525,
  "ĠEigen": 24092,
  "ationship": 15471,
  "èĬĴæŀľ": 113792,
  "ÙĤØ¶Ø§": 135617,
  "odox": 30062,
  "ãĥĿ": 88054,
  "Ġpobli": 142092,
  "']),": 32087,
  "à¸ģà¸²à¸£à¹Ģà¸Ķà¸´à¸Ļà¸Ĺà¸²à¸ĩ": 139086,
  "ĠsetMessage": 66891,
  "ÃªÌģ": 132515,
  "ëĲľëĭ¤": 132306,
  "plets": 89492,
  "NOW": 43929,
  "åħ¥é©»": 106440,
  "çĻ£": 119523,
  "Ġbelief": 16396,
  "ĠAless": 69785,
  "æĪĺåľºä¸Ĭ": 118657,
  "ï¸½": 148467,
  "Ġsala": 57933,
  "Scrollbar": 66674,
  "prend": 58876,
  "Ġforcefully": 85978,
  "And": 3036,
  "Ġpode": 28194,
  "merce": 10190,
  "avig": 2957,
  "ĠCherokee": 70041,
  "ĠError": 4600,
  "ĠSA": 16589,
  "Ġsscanf": 61913,
  "ĠFinals": 45047,
  "Ġprogrammed": 55068,
  ".listView": 66851,
  "Ġdiagnoses": 84388,
  ".return": 21458,
  "ĠStevenson": 81948,
  "Ġ@@Ċ": 87120,
  "æłĲ": 122436,
  "Ġmanners": 69470,
  "leans": 21708,
  "Ġ×Ĺ×ĳ×¨×ª": 129777,
  "ĠLayers": 83822,
  "cka": 96257,
  "Ġplated": 87133,
  "ĠTaking": 35825,
  "ðŁ¥Ĭ": 147933,
  "pecific": 15564,
  "ĠÐ¾Ð±ÑĢÐ°Ð·Ð¾Ð¼": 132256,
  "_Location": 85524,
  "Ġexcuse": 27291,
  "ðŁĴĸ": 144875,
  "å¼ķçĪĨ": 116675,
  "_integration": 90250,
  ".rollback": 58011,
  "×Ĺ×ķ×¨×£": 141951,
  "DV": 61971,
  "âĺİ": 144519,
  "ĠVisual": 20185,
  "Ġprimaries": 65412,
  "ĠØ§ÙĦÙħØªØŃ": 129039,
  "ç½ĳé¡µ": 106384,
  "ĠCitadel": 96226,
  "Ġpossibilities": 23607,
  "xsd": 82370,
  "Ġforefront": 51201,
  "å¤§åıĳå¿«ä¸ī": 115411,
  "åĻ¨åħ·": 116948,
  "ÐºÐ¾Ð¼Ð¿Ð¾Ð½": 142247,
  "å®īåħ¨ç®¡çĲĨ": 112563,
  "çļĦåŃ¦çĶŁ": 105135,
  "Ġplans": 6649,
  ".Month": 48383,
  "ĠwindowHeight": 88547,
  "ĠjÄĻzy": 132937,
  "æ¸¯åı£": 106165,
  "ĠLikes": 50914,
  "ksztaÅĤc": 139440,
  "åįıåĲĮ": 102402,
  "Ġ''.": 42863,
  "Ġ{čĊ": 972,
  "Ġdownturn": 75406,
  "åĨħé¥°": 109313,
  "à¸Ńà¸Ńà¸ģà¸ģà¸³à¸¥à¸±à¸ĩ": 142827,
  "á´ī": 148910,
  "åıĬ": 81217,
  "Ġundes": 55738,
  "-o": 16022,
  "_normals": 91029,
  "Ġliabilities": 57065,
  "anti": 15359,
  "ĠOFF": 17611,
  "Attend": 98268,
  "ServiÃ§o": 137070,
  "âĤĴ": 147884,
  "Ġprioritize": 62552,
  "(tid": 83519,
  "æĭ¬": 100139,
  "facebook": 20944,
  "_De": 24597,
  "ãģªãģ©ãģ§": 133634,
  "Ġremedies": 50136,
  "åķ´": 122813,
  "DECREF": 71507,
  "_formatter": 73965,
  "å°±æĥ³": 110684,
  "\"];": 27533,
  "capital": 65063,
  "ĠíĶ¼": 142510,
  "ĠDot": 31262,
  "Multip": 57251,
  "åĪ°ä½į": 105140,
  "ëĤ´": 95218,
  ">Name": 44668,
  "ipment": 5402,
  "Ġprevent": 5358,
  "alary": 39459,
  "ĠdÃ©co": 134189,
  "æĮĤ": 99935,
  "-transfer": 92691,
  "roulette": 98148,
  "å¹´èĸª": 115219,
  "Ġnotably": 34046,
  "à¸ģà¸µà¹ī": 142333,
  "åıĺçİ°": 113866,
  "Ġmovements": 19029,
  "ĠisChecked": 69960,
  "ĠTriá»ģu": 143656,
  "He": 1519,
  "(en": 45608,
  ".DEFAULT": 14864,
  "ĠRolling": 44948,
  "ĉcr": 91492,
  "_REGISTER": 33355,
  "å¯ĩ": 113345,
  "_pattern": 21260,
  "ð¦Ń": 122289,
  "Ġutan": 81764,
  "Ġerotische": 22210,
  "ĠKitty": 66181,
  "dale": 34183,
  "Ð½ÑģÑĤÑĢÑĥ": 130306,
  "åĪ©æ¶¦": 101205,
  "éļĽ": 101685,
  "Ġcalidad": 55820,
  "variant": 15969,
  "Ġslashed": 83524,
  "ĠÐ·Ð°Ð¿Ð¸Ñģ": 55511,
  "æĥ´": 121060,
  "Tile": 15628,
  "chet": 39113,
  "ĠXml": 19201,
  "ð«ļĸ": 123337,
  "âĶı": 145762,
  "ĠkullanÄ±m": 138876,
  "rnd": 64869,
  "ë¥¼": 18411,
  "ĠÅĽmierci": 143256,
  "ĠDebug": 11091,
  "ACEMENT": 88806,
  "Ġdiminishing": 83053,
  "leaning": 58951,
  "ÙħÙĪÙĦ": 134054,
  "etes": 95181,
  "ĠyatÄ±rÄ±m": 131455,
  "_suffix": 37151,
  "Advisor": 60991,
  "zeichnet": 85740,
  "emain": 92558,
  ".getChild": 38028,
  "Ġsailor": 92537,
  "ĠOrd": 30037,
  "ðĿĲ¤": 147715,
  "ĠTotal": 10657,
  "ÙĤØ¨Ø¶": 140977,
  "IVERY": 64824,
  "Ġwire": 9067,
  "èĥ¤": 117085,
  "_State": 24773,
  "Girl": 30628,
  "perial": 67227,
  "Ġpaired": 34426,
  "çīĮåŃĲ": 109453,
  "ĠContact": 9180,
  "retty": 21322,
  "ĠASN": 54855,
  "Ġejected": 94403,
  "æīĵåĩ»": 102262,
  "ĠSans": 14747,
  "missions": 5176,
  "æī«é»ĳéĻ¤æģ¶": 106841,
  "=v": 39254,
  "åļħ": 121876,
  "Ġ}}>": 45521,
  "Ġpups": 89721,
  "Ġtinha": 94948,
  "ĠÑĢÐ°Ñģ": 77776,
  "arra": 79030,
  "çļĦæĪĲæľ¬": 109679,
  "àºľ": 150233,
  "neg": 28775,
  "gt": 5178,
  "attributes": 12340,
  "SectionsIn": 95005,
  "-Sep": 95153,
  "Ġxsi": 37757,
  "ĠInteraction": 42707,
  "<UnityEngine": 57774,
  "Ġ×ĳ×Ĵ×Ļ×ľ": 137363,
  "ë¯ĳ": 151436,
  "sts": 36279,
  "æĻĲ": 122630,
  "ĉct": 89216,
  ".pattern": 39109,
  "oot": 1905,
  "Sending": 49282,
  "ĠMMI": 93087,
  "ãĩ¼": 149380,
  "à¸ķà¸±à¹īà¸ĩà¹ĥà¸Ī": 141945,
  "loth": 69552,
  "ë¢ī": 150301,
  "ĠBom": 47352,
  "Ġorally": 97022,
  "ĠUniverse": 28749,
  "ĠÐ¿ÑĢÐ¸Ð½ÑĨÐ¸Ð¿": 136396,
  "ĠÃĸzellik": 136636,
  "è¯Ħ": 63379,
  "å¥ł": 100989,
  "è¿Ļæ®µ": 107083,
  "Ġnanoparticles": 93653,
  "ATYPE": 72695,
  "ä¸¤ä¸ªæľĪ": 107985,
  "ĠExam": 32310,
  "ĠSVN": 75714,
  "Ġzen": 53462,
  "ĠIllegalStateException": 40827,
  "Ġflyer": 74906,
  "ĠSpain": 17689,
  "æĺ¯ä¸Ģé¡¹": 113360,
  "Ġhardness": 70903,
  "ĠìĤ¬ëŀĮëĵ¤": 131508,
  "-aligned": 97451,
  "Ð±ÑĢ": 129452,
  "_TURN": 94583,
  "Ð¾Ð´Ðµ": 138304,
  "ycz": 38134,
  "ĠÑĤÐµÐ°ÑĤ": 142633,
  "inh": 20868,
  "_COMMAND": 22723,
  "Ð¾Ð±ÑĢ": 131014,
  "ĠHospital": 15079,
  "ð¬Ĥ": 122596,
  "Ġprototype": 24052,
  "Ġtslib": 94261,
  "-tabs": 31741,
  "Completion": 33190,
  "Hope": 38015,
  "*this": 73014,
  "ÙĩÙĬ": 126992,
  "åģļå®Į": 112555,
  "ĠObamacare": 35996,
  "Ġtonumber": 66296,
  "ĠInbox": 95579,
  "ĠSeeing": 55024,
  "èµ°è¿Ľ": 104400,
  "å¾Īå¥½": 101243,
  "Ġdancer": 63582,
  "killer": 72078,
  "çĴ§": 114764,
  "Ġacute": 29783,
  "Ġ×©×Ķ×ª": 131960,
  "ĠloadData": 62432,
  "Ġpublishers": 35617,
  "Ġconsiderations": 37764,
  "å®«": 99921,
  "-cent": 21217,
  "ex": 327,
  "Ġfrantic": 88606,
  "Ġbumped": 78832,
  "Ð»ÑİÐ´": 134703,
  "çīĴ": 121240,
  "Ġincl": 18409,
  "Ġpickle": 22186,
  "ØŃØ§Ø¯": 125931,
  "-sama": 95176,
  "[url": 75150,
  "Ġresisting": 69341,
  "ĠsÃ¸ger": 61271,
  "(period": 74782,
  "\"',Ċ": 68187,
  "Ġiy": 50414,
  "\"}}Ċ": 95642,
  "Ġcrops": 30565,
  "mul": 24160,
  "foil": 98957,
  "èĩªè´¸": 103553,
  "Ġfing": 38727,
  "âĤ¬": 15056,
  "imit": 2353,
  "à¸Ĥà¸Ļà¸¡": 138421,
  ".hero": 63709,
  "æľĪä»¥æĿ¥": 114738,
  "ĉPreparedStatement": 59337,
  "Ġareas": 5671,
  "ĠANSW": 96704,
  "posables": 95966,
  "èĸ¨": 121720,
  "_PLAY": 38575,
  "ï¬Ħ": 148671,
  "ĉLOG": 25509,
  "Concrete": 83594,
  "characters": 47485,
  "itates": 81729,
  "_feats": 70646,
  "Ð»ÐµÐ¼ÐµÐ½ÑĤ": 38144,
  "UART": 51694,
  "Destroyed": 85742,
  "ä¸Ńéĵģ": 111351,
  "Ġdemanding": 25135,
  "arp": 7876,
  "-valu": 80019,
  "è¿ĩæĪ·": 117671,
  "ðŁĵĬ": 146895,
  "_channel": 14571,
  "vertices": 13030,
  ".vert": 57765,
  "izador": 90589,
  "Fmt": 93322,
  "×ŀ×Ĳ×Ļ": 127375,
  "Ġbreeding": 39208,
  "Raised": 94914,
  "ĠÐ½ÐµÐ»ÑĮÐ·": 138915,
  "ĉĉĉĉĉĉĉĉčĊ": 97314,
  "ĠRULE": 43797,
  "lobal": 2042,
  "cod": 20116,
  "Ġupscale": 73923,
  "Ġtimeline": 24808,
  "chemes": 66346,
  "Ġcomprised": 38956,
  "ĠĠĠĠĠĠĠĠĠĠĠĠĠĠĠĠĠĠĠĠĠĠĠĠĠĠĠĠĠĠĠĠĊ": 33641,
  "_as": 11898,
  ".assertAlmostEqual": 87600,
  "ĠTalking": 60922,
  "Ġmeteor": 41042,
  "é«®": 113815,
  "hes": 16668,
  "Ġsmoothed": 92839,
  "AIM": 14323,
  "ĠDale": 36728,
  "koneksi": 88782,
  "ãĥŃãĥĥãĤ¯": 137502,
  "æİ³": 120561,
  "retval": 19843,
  "turtle": 81109,
  "AutoresizingMaskIntoConstraints": 58491,
  "áŀİ": 147639,
  "Ġcongestion": 54046,
  "combine": 63136,
  "ðĿĴ¾": 150077,
  "_collection": 25019,
  "Ġmen": 2953,
  "èĨľ": 101232,
  "ĠLena": 81062,
  "sth": 30077,
  "instances": 47825,
  "à¸ªà¸±à¸Ľà¸Ķà¸²à¸«à¹Į": 134371,
  "æ¼Ķ": 99312,
  "Ġuranus": 95228,
  "åĳ¨äºĶ": 110183,
  "ogra": 91141,
  "à¸Ńà¸¸à¸Ľà¸ģà¸£": 131312,
  "Ġowe": 41110,
  "ĠMCC": 98252,
  "Ġvuel": 63613,
  "-May": 61986,
  "ä»ĬåĽŀãģ¯": 131915,
  "ĠSemi": 54638,
  "Autom": 41072,
  "åįķçĭ¬": 105818,
  "åĴ©": 120132,
  "æ°´åĪ©": 102792,
  "Ġacres": 26367,
  "Ġpresence": 9362,
  "Ø£Ø´ÙĬØ§Ø¡": 140536,
  "ĠMaze": 65091,
  "Ġbottoms": 92550,
  "CLS": 87716,
  "Ð½Ð¸Ð±ÑĥÐ´ÑĮ": 139615,
  "birds": 66361,
  "Ġláº¯p": 135765,
  "Ġdesc": 6560,
  "çļĦæłĩåĩĨ": 106834,
  "ĠÑĦÐ°Ð¹": 35256,
  "_symbol": 21179,
  "Ġmagazines": 31847,
  "ĠVIDEO": 41769,
  ".Line": 16420,
  "_pickle": 73661,
  "ĠTim": 9354,
  "ä»¥çĤº": 112753,
  "\";ĊĊĊ": 29122,
  "zm": 31489,
  "ĠCarroll": 46109,
  "esch": 59378,
  "à¹ĥà¸«à¸į": 125526,
  "è´¤": 104591,
  "ðŁİ¡": 149180,
  "(context": 5378,
  "ĠØ§ÙĦØ£ÙĦÙħØ§ÙĨÙĬ": 142735,
  "nested": 59271,
  "lose": 1469,
  ".CheckBox": 32348,
  "æ°´èĤ¿": 117908,
  "ĠTray": 64616,
  ".Put": 39825,
  "ĠHLS": 92177,
  "æ": 162,
  "Ġcontributor": 25305,
  "åı¯æĺ¯": 103933,
  "ĠPero": 55432,
  "çĸĳéļ¾": 118246,
  "ĠagrÃ©able": 141522,
  "Ġtook": 3867,
  "(Client": 46851,
  "intro": 36442,
  "_AXIS": 50431,
  "_Open": 51747,
  "handleRequest": 91237,
  "ë°ĭ": 144870,
  "æµģæ°ĵ": 117855,
  "Ġbeaucoup": 47388,
  "æľįåĬ¡èĥ½åĬĽ": 114656,
  "ìĪ¯": 145833,
  "ĠforCell": 72522,
  "CCCCCC": 91443,
  "Ġ},{Ċ": 51387,
  "ĠprÃ©sident": 88702,
  "à¸«à¸Ļà¸Ńà¸ĩ": 143493,
  "æĸ°å¢ŀ": 93620,
  "Ġlettre": 69456,
  "ìĦģ": 147555,
  "çŃ¾ç½²": 102623,
  "Ġdollars": 11192,
  "Ġ*\"": 91204,
  "å±±ä¸Ĭ": 109301,
  "Ġprofoundly": 65178,
  "ë¯": 49173,
  "_venta": 87621,
  "ï¬¸": 147021,
  "+d": 51412,
  "Ġworthless": 65021,
  "éĤ£ä¸ªäºº": 112382,
  "ĠGSM": 67555,
  "])-": 62770,
  "Ġflyers": 85008,
  "Ġpageable": 70147,
  "ç»ıéĶĢåķĨ": 105374,
  "ALT": 35830,
  "Ã¼m": 48521,
  "ä¼łè¨Ģ": 117343,
  "Ġpornos": 39383,
  ".Initial": 32932,
  "Ġ×ŀ×Ĳ×¤×©×¨": 134573,
  "å¾Īæľī": 105098,
  "ĠHolt": 58906,
  "-api": 23904,
  "ãĤ·ãĥ§": 126024,
  "çĽĳçĭ±": 110189,
  "ìĿĳ": 131518,
  "åĩłåĪĨéĴŁ": 112535,
  "('/')[": 94773,
  "ĠlÃ¢u": 129986,
  "roducing": 59537,
  "_Mod": 71485,
  "ĠWitt": 82176,
  "Ġ<?=": 17875,
  "Ġforeign": 7214,
  "ä¸įåı¯èĥ½": 102340,
  "Ġ×Ľ×¡": 133358,
  "ĠEli": 33262,
  "uento": 55288,
  "å°ģéĶģ": 111845,
  "_str": 2895,
  "ĠØ§ÙĦÙħÙĪÙĤØ¹": 133052,
  "åıĳæĮ¥": 100689,
  "@dynamic": 94962,
  "ict": 849,
  "ĠBlitz": 88128,
  "Ġincreasingly": 14756,
  "-V": 19625,
  "ĠIndexed": 84404,
  "ĠTells": 98890,
  "ĠwÅĤos": 141866,
  "_observer": 81912,
  "ĠJScrollPane": 81905,
  "Ġhiáº¿m": 143799,
  "Ã¼ns": 66107,
  "ĠmÃłu": 128865,
  "Ġfoyer": 98916,
  "Little": 38103,
  "Kon": 77466,
  "çĻ¾åº¦": 104376,
  "uesta": 19441,
  "-mod": 17078,
  "×¤×ĺ": 125146,
  "Ġ×ĵ×ķ×¨×©": 143079,
  "æĭ¼åĳ½": 108068,
  "ĠAccepted": 63289,
  "ÑŃ": 149501,
  "keyword": 19863,
  "ãĥ°": 146257,
  "åĬłä»¥": 105922,
  "Ġdoen": 53902,
  "Ġ×ľ×¢×ķ×ŀ×ª": 137132,
  "ĠrÃµ": 129398,
  "ĠTrad": 15065,
  "à¸ķà¹īà¸Ńà¸ĩà¸ģà¸²à¸£": 126553,
  "æ¸¸èīĩ": 118938,
  "ĠÑĥÐ´Ð°ÑĢ": 141344,
  "quet": 23300,
  "íĺĢ": 128173,
  "CHE": 43793,
  "æĽ¸ãģį": 132497,
  "Ġmuy": 22506,
  "Ġnewcomers": 67458,
  "))(": 28154,
  "éĤ»": 100603,
  "Ġcn": 13665,
  "Ġâŀ": 82706,
  "Ġparametros": 60405,
  "Ġpancre": 61168,
  "Blocking": 48266,
  "(web": 39769,
  "Ġcomun": 42935,
  "Ġcantidad": 37276,
  "acin": 39388,
  "âĨ¬": 147144,
  "ç»Ĩèĩ´": 107193,
  "Ġtaking": 4633,
  "Ġtailored": 40791,
  "ich": 713,
  "(IP": 55483,
  "×Ļ×ĳ×ľ": 125974,
  "Ġ})čĊčĊ": 91276,
  "èĳŃ": 120883,
  "isten": 37122,
  "-download": 62451,
  "ĠSCI": 80463,
  "Ġpaints": 56848,
  "/console": 96269,
  "Ali": 17662,
  "Ġmama": 56164,
  "é¦ĸåħĪ": 101140,
  "Ġgangs": 54123,
  "æ¾¥": 121835,
  "ĠcinÃ©": 143376,
  "ĠSpin": 40685,
  "Manchester": 74243,
  "å°ĳè®¸": 111549,
  "âİĵ": 148060,
  "Ġ×ľ×§×ĳ×ľ": 126662,
  "ARIO": 35809,
  "áŁ": 44258,
  "ĠHor": 14741,
  "$path": 72949,
  ".PRO": 29687,
  "çĺħ": 123238,
  "ĠÙģÙĪÙĤ": 135726,
  "ĠTed": 23115,
  "!(": 10297,
  "=========Ċ": 66686,
  "ĠNumeric": 50367,
  "Ġ*)((": 78774,
  "/Gate": 88820,
  "Ð½Ð¸Ñĩ": 132075,
  "Ġhelicopters": 58332,
  "Ġ×ķ×ĸ": 140721,
  ".loaded": 60879,
  "Ġè®": 33424,
  "Ġrecruits": 55097,
  "æīĢæľīçļĦ": 104152,
  "languages": 42824,
  "ç»º": 120835,
  "Ġoutrageous": 54488,
  "ç©Ĺ": 110832,
  ")})": 98329,
  "ĉresult": 9559,
  "ì°Į": 144085,
  "Ġcurved": 49164,
  "_metric": 41294,
  "TextChanged": 45519,
  "ĠSENT": 95751,
  "ĠDBG": 37392,
  "ÙĥØªØ§Ø¨Ø©": 138448,
  "ä¿ĦåĽ½": 118924,
  "Ġfolks": 15327,
  "åĽŀåĽ½": 108184,
  "Ġtrust": 6950,
  "ĠSTATS": 75982,
  "Ġexploitation": 39661,
  "_prov": 89648,
  "Framebuffer": 58538,
  "çºłæŃ£": 109733,
  "å¾·èĤ²": 115362,
  "ĠyapÄ±l": 125620,
  "ðŁİ°": 146298,
  "Ãµ": 11151,
  "ĠHoÃłng": 130597,
  "ÙħÙĨÙĩØ¬": 141911,
  "æ³ªæ°´": 113147,
  "Ġ×ľ×ŀ×©×ľ": 132967,
  "ĉsh": 36196,
  "Ġcauses": 11137,
  "}}</": 12813,
  "ĠÃ¼y": 141747,
  "Ø¨ÙĦØ§Øº": 142066,
  "_firstname": 92095,
  "èħ¦": 103213,
  "villa": 63338,
  "ĠLEGO": 55801,
  ")v": 51877,
  "Ð´Ð²Ð¸Ð³": 140179,
  "yaml": 41466,
  "ĠÑĪÐºÐ¾Ð»ÑĮÐ½": 141713,
  "oro": 18307,
  "æĢ¥éĢŁ": 118248,
  "ï¨Ģ": 147056,
  "ìº¬": 146324,
  "ĠMAT": 24795,
  "datatype": 62409,
  "éĵ": 43559,
  "ĠMODE": 22690,
  "ä»Ĺ": 102895,
  "æłĩé¢ĺ": 60396,
  "cek": 45700,
  "ÐºÑĥ": 35252,
  "åĨ³èµĽ": 102817,
  "ĠBoehner": 77167,
  "(before": 93618,
  "Ġemerg": 7277,
  "Ġcapacity": 8654,
  "conditionally": 95967,
  "Ġtheoret": 25131,
  "_hr": 70138,
  "ĠAWS": 23245,
  "ĠWilliams": 13612,
  "_coords": 32576,
  "Ġ×Ķ×ķ×ľ×ĵ×ª": 141692,
  "'aff": 81305,
  "èµŀèªī": 115786,
  "ï²»": 151225,
  "çĺ¢": 121663,
  "KeyEvent": 62996,
  "Ð¾ÑĤÐ²ÐµÑĤ": 127227,
  "æįį": 103835,
  "Ġsoph": 18701,
  "YLE": 24752,
  "Ġagendas": 82929,
  "Ġ\\<": 4444,
  "ĠisError": 87612,
  "ĉnode": 20831,
  "áº¯p": 125342,
  "ê¶ľ": 147414,
  "Public": 12676,
  "Ø§ÙģØ©": 125185,
  "ĠImproved": 58123,
  "á»ģ": 39938,
  ".basicConfig": 68797,
  "Ġterrifying": 41251,
  ".ReadAll": 41851,
  "ĠEPA": 26158,
  ".EventType": 89879,
  "ê²¼": 144141,
  "ĠSnowden": 46360,
  ".Style": 22100,
  "×ĺ×¢": 124864,
  "ÔĢ": 146318,
  "ĠFountain": 77224,
  "Ġ\")čĊ": 50841,
  "Ġlogarith": 89936,
  "ĠìĤ¬ëŀĮìĿĢ": 140173,
  "ðŁĳ³": 148203,
  "-Le": 46168,
  "ĠSymptoms": 76317,
  "Ġ{}:": 90912,
  "âĢľWe": 14743,
  "Ġletting": 20194,
  ".php": 2296,
  "':čĊ": 18421,
  "Ġzobow": 142818,
  "Oops": 55272,
  "ÃŃdo": 130843,
  "ĠdataTable": 62766,
  "ĠÐ½Ð°Ð»Ð¸ÑĩÐ¸Ð¸": 140885,
  "âĹĨ": 135844,
  "åŁİå¸Ĥåıĳå±ķ": 115106,
  "è·Łè¿Ľ": 111933,
  "ä¸ĵä¸ļçŁ¥è¯Ĩ": 112104,
  "Ġanchor": 17105,
  ".getWriter": 58386,
  "Üĺ": 146277,
  "çķ¢ç«Ł": 118956,
  "æĥħåł±ãĤĴ": 134482,
  "æ¯ıäºº": 108156,
  "Ġexert": 42744,
  "_BIND": 44555,
  "Ġleider": 88028,
  ".Unknown": 69971,
  "Ø±ØŃÙĦ": 132663,
  "Ø¯ÙģØ§Ø¹": 141293,
  "Ġseins": 54328,
  "Ġbetween": 1948,
  "çĸł": 119937,
  "nÄ±zda": 137722,
  "çº©": 122180,
  "ĠØ¢Ø®Ø±": 129197,
  "(fc": 77684,
  "jest": 49015,
  "_WEB": 53085,
  "å·¦": 77559,
  "çļĦé«ĺåº¦": 107725,
  "æ²¡è§ģè¿ĩ": 117121,
  "//Ċ": 2289,
  "Ġaffirmed": 73449,
  "Fill": 14449,
  "ĠPotato": 77603,
  "åĽ½éĻħæľºåľº": 113663,
  "ëĦĲ": 139287,
  "×ª×©×ķ×ĳ×Ķ": 133904,
  ".azure": 70240,
  "ç®Ĺ": 69103,
  "|;Ċ": 34026,
  "estro": 54556,
  "LOCAL": 39081,
  "ä¼łéĢĴ": 104793,
  "è°Īè®º": 112225,
  "ĠofType": 71754,
  "ĠSovere": 88221,
  "Ġsoup": 19174,
  "Globals": 48592,
  "ç¢´": 121394,
  "Ġcanned": 63014,
  "ledge": 4890,
  "×ł×Ļ×Ĺ": 133641,
  "ĠÐ¼Ð¾Ð¶ÐµÑĤ": 66988,
  "/fs": 73036,
  "å¯¹çħ§": 103201,
  "Ġlb": 18866,
  "ĠDefender": 65014,
  "å¯¼æ¸¸": 109414,
  "×©×ķ×§×ķ×ľ×ĵ": 141122,
  "ist": 380,
  "arpa": 81897,
  "Ġjewels": 85031,
  "èĩªçĦ¶èĢĮ": 117536,
  "Ġä¸Ń": 72858,
  "+\"/": 27569,
  "blers": 70378,
  ".edu": 12586,
  "ĠWouldn": 89864,
  "rist": 2819,
  "ë²Ľ": 150952,
  "ÊĪ": 149486,
  "æĪĳä»¬å¿ħé¡»": 114120,
  ".front": 23445,
  "ĠKomment": 67489,
  "{Name": 63121,
  "Ġsect": 30137,
  "ãĳĩ": 122231,
  "çº¡": 119650,
  "_sizes": 32159,
  "Ã¤tz": 59638,
  "-Version": 83902,
  "Ġarc": 15580,
  "Ġallow": 2138,
  "æĶ¹ä¸º": 109762,
  "ĠAad": 79272,
  "(help": 83950,
  "ersonic": 94557,
  "erture": 41847,
  "ÙĬØ±Ø§": 128168,
  "æĺ¤": 122463,
  "Ġfortn": 83211,
  "Ġnarratives": 57278,
  "ĠcomponentWill": 38845,
  "Ġspeak": 6468,
  "ĠLage": 95506,
  "atha": 65726,
  "_FETCH": 57925,
  "ure": 552,
  "ĠBS": 27618,
  "ĠRegistr": 74559,
  "useRalativeImagePath": 88373,
  "Fre": 36731,
  "é¹ĺ": 121441,
  "ammo": 98327,
  "abor": 4324,
  "ipeline": 8790,
  "æĭĸ": 101325,
  "à½ĺ": 148436,
  "\"\"\".": 87930,
  "é£İåħī": 106686,
  "rees": 7858,
  "Ġsummers": 79669,
  "-fed": 78000,
  "ML": 2668,
  "áħ§": 149373,
  "ĠPX": 55484,
  "Ġfiled": 12729,
  "Ġtemporary": 13340,
  "â¸Ŀ": 146083,
  "overwrite": 64915,
  "ĠaDecoder": 66050,
  "ĠCult": 25594,
  "zimmer": 64474,
  "âĺķ": 145314,
  "index": 1252,
  "ÛĪ": 145798,
  "Ġphilosoph": 13556,
  "ĠMacro": 53317,
  "ĠÐ¼Ð½Ð¾Ð¶": 141311,
  "×¢×Ļ×Ł": 132648,
  "à¸Īà¸²à¸ģà¸ģà¸²à¸£": 130991,
  "ake": 726,
  "Ġorth": 29199,
  "(desc": 37673,
  "Ġwp": 12609,
  "ä»Ģä¹Īåĳ¢": 111383,
  "telefone": 78130,
  "ĠSkywalker": 76662,
  "(func": 18552,
  "âĮĴ": 144786,
  "æı¿": 120863,
  "æ¹¿": 100102,
  "Ġpineapple": 77082,
  "ç½ĳç»ľä¼łæĴŃ": 117985,
  "ĠCho": 32580,
  "_ang": 58060,
  "-defense": 57698,
  "å®ĥçļĦ": 104121,
  "ĠÐ·Ð½Ð°Ñĩ": 39550,
  "ç¢ºãģĭ": 139162,
  ".statusStrip": 81988,
  "ðŁĩ¼": 147192,
  "ðŁıł": 145574,
  "/Runtime": 82636,
  "ĉplayer": 24574,
  "ì¿Ħ": 144818,
  "_ON": 11077,
  "owns": 42356,
  "Ġsafeguard": 47971,
  "Ġporque": 27795,
  "æī§æ³ķ": 101302,
  "à¸±à¸§": 124108,
  "Ġ'''Ċ": 11166,
  "UInteger": 35164,
  "declspec": 56318,
  "ðŁĮĨ": 149916,
  "éĺ²æİ§": 102117,
  "Ġprayer": 22936,
  "Ġchoke": 64036,
  "Nothing": 23780,
  "udos": 45079,
  "Ġ×Ĳ×Ĺ×¨×ķ×ł×Ļ×Ŀ": 142433,
  "rena": 22691,
  "ĠWear": 41062,
  "Ġelucid": 96198,
  "_handling": 75642,
  "ä¿Ŀå§Ĩ": 113685,
  "Ġgenerates": 26885,
  "Ġdiscourse": 40502,
  "é¥´": 119933,
  "=False": 5608,
  "_redirected": 73309,
  "×¨×Ĵ×¢": 129167,
  "Ġemploys": 50142,
  "Ġvaleurs": 95935,
  "/libs": 22755,
  "({": 2306,
  "Ġ×ĳ×Ĵ×Ļ×Ł": 138958,
  "Day": 10159,
  "kea": 42428,
  "ē": 207,
  "ĠTorah": 71950,
  "ìŀ½": 146860,
  "ĠfÃ©": 57382,
  "Ġcraving": 63704,
  "Ġwaar": 37295,
  "å§Ŀ": 120268,
  "à¸Ľà¸ģ": 127193,
  "idak": 60389,
  "chl": 67056,
  "ĠÑģÐ¼": 126762,
  "è¯Ī": 101564,
  "ðŁĳ´": 147727,
  "ĠwxT": 74197,
  "ĠHealth": 6267,
  ".SIG": 85086,
  ".Assertions": 46312,
  "æĪ£": 123281,
  "ĠBlockPos": 79064,
  "ivated": 54686,
  "èĴ¹": 121137,
  "/sm": 74037,
  "ĠATL": 77523,
  "æĶ¯éħį": 113413,
  "ĠNose": 92123,
  "ancode": 87115,
  "ãĥıãĤ¤": 133854,
  "_OD": 60426,
  "')(": 27568,
  "ĠGÃ³r": 137785,
  "(adapter": 42534,
  "ĠFlooring": 77958,
  "æ¢¦å¹»": 110494,
  "ĠâĤ¹": 89791,
  "Ġasserts": 56776,
  "\"'Ċ": 87628,
  "irms": 14404,
  "Ġê´Ģëł¨": 129985,
  ".INVISIBLE": 56531,
  "Trip": 56352,
  "ä¸Ģäºĭ": 110916,
  ".getElements": 17985,
  "è¿ľç¦»": 107143,
  "Ġexpert": 6203,
  ".include": 29645,
  "å¦Ļ": 100279,
  "-mort": 89553,
  "DateString": 46770,
  "ĠØ§Ø³ØªØ±Ø§ØªÙĬØ¬ÙĬØ©": 143025,
  "_office": 79604,
  "ientos": 31960,
  "oupper": 36888,
  "/lib": 8194,
  "Ġcounts": 14579,
  "åĩłæŃ¥": 117087,
  "åĪ¿": 119883,
  "Ġentend": 68279,
  "Ġdisclosing": 94835,
  "è·ª": 107296,
  "æĶ¿åĬ¡æľįåĬ¡": 110321,
  "æĥĶ": 122893,
  "ĠXunit": 59361,
  "ãĤĦãģ£ãģ±": 134622,
  "Ġmentor": 35428,
  "isset": 4888,
  "æīĵæ³ķ": 111307,
  "åĨħå®¹": 43815,
  "é©¿": 103795,
  "quelle": 87165,
  "orman": 62875,
  "Ġ///Ċ": 17057,
  "å®ŀåľ°": 107064,
  "ä¸ŃåĽ½æĸĩåĮĸ": 113076,
  "=is": 92310,
  "jectives": 86578,
  "Alive": 32637,
  "_contents": 16682,
  "(Font": 81572,
  "ç¡ħ": 102831,
  ".bank": 56683,
  "ĠRem": 4926,
  "_filter": 8727,
  "cliffe": 79456,
  "zeich": 50591,
  "ãĥģãĥ£": 125946,
  "Ġ×Ĺ×ĸ": 130941,
  "Ġpreg": 19978,
  "}\");Ċ": 20305,
  "Ð¿Ð¾ÑĢÑĤ": 129362,
  "Ġret": 2112,
  "raise": 18704,
  "Ġê·¸ëŁ¼": 141357,
  "Ġspoilers": 65327,
  ".wait": 16294,
  "_accuracy": 41358,
  "_tm": 44045,
  ".ic": 27822,
  "ampp": 45726,
  "äº¤æİ¥": 113989,
  "æİĽãģĳ": 135045,
  "à¹Ģà¸Ķà¹ĩ": 125564,
  "ĠWinners": 76312,
  "ĠOrange": 21958,
  "ê³ł": 34395,
  "ĠRadio": 13484,
  "Ø´Ø±": 123941,
  "ĠLid": 80609,
  "Ġná»¯a": 128870,
  ".borderWidth": 65378,
  "Ġtransporting": 66657,
  "Ġviruses": 40968,
  "Ġtrenches": 94978,
  "ä»¶äºĭ": 108008,
  "_book": 26421,
  "Ġmemberships": 87981,
  "ä¹±è±¡": 115655,
  "oker": 10451,
  "æ¥©": 123159,
  "_EMIT": 97763,
  "Ġï¿½ï¿½ï¿½ï¿½": 59630,
  "ĠnÃ©": 37505,
  "Ġretained": 34263,
  "×ŀ×ĵ×¨×Ļ×ļ": 137301,
  "Ñĭ": 4552,
  "Ġability": 5726,
  "sburgh": 25254,
  "_lhs": 84284,
  "æ¶¦æ»ĳ": 103745,
  "Ġunlike": 19836,
  "'un": 22052,
  "(v": 3747,
  "èļ°": 120660,
  "=device": 19718,
  "ç»ł": 120541,
  "èĻļ": 100226,
  "à¸ķà¹Īà¸²à¸ĩ": 124859,
  "éļ¾æĢª": 113987,
  "ĠSexual": 38667,
  "ĉvalid": 56322,
  "×ĵ×ª×Ļ": 136118,
  "Ġconvex": 65930,
  "ikip": 14628,
  "Exp": 8033,
  "ĠRiders": 86070,
  "Ġhá»ĵi": 130344,
  "-dimensional": 32420,
  "ĠNevada": 26868,
  "Ġreunited": 76879,
  "ĠPCB": 50077,
  "Ġformulaire": 94895,
  "ä¸īå¹´": 101256,
  "åĪĿæ¬¡": 113852,
  "áĲł": 150527,
  "Ġwithdrew": 61665,
  "Ġcrt": 97967,
  ".logging": 16572,
  "æ¬¾å¼ı": 108756,
  "azel": 68326,
  "Ġexplan": 13357,
  "Ġtraumat": 98036,
  "ervation": 8768,
  "å¯Ŀ": 103788,
  "PR": 6480,
  "Ġhallway": 50802,
  "èıħ": 120602,
  "ï¥¸": 146891,
  "NAL": 80305,
  "Ġå¼": 52506,
  "Ġheartbeat": 52105,
  "ergarten": 47572,
  "ĠØ§ÙĦØ¹Ø³ÙĥØ±ÙĬØ©": 138277,
  "ĠGlam": 86713,
  "(curr": 26903,
  "Å¼Äħ": 130706,
  "Ġupside": 35841,
  "ĠOpens": 66179,
  "ĠfindBy": 44459,
  "IGNED": 25015,
  "Ġrecovery": 13351,
  "Eb": 82414,
  "Ġsquarely": 94463,
  ".dataGridViewTextBoxColumn": 46977,
  "ðŁĹ¨": 147123,
  "Rew": 58465,
  "ä¸ŃåĽ½ä¼ģä¸ļ": 111203,
  "ust": 590,
  "ðŁĲķ": 146029,
  "ĠJersey": 15849,
  "Ġcounterfeit": 82634,
  "æĹħæ¸¸": 99790,
  "xyz": 28854,
  ".GetText": 96789,
  "Ġcapacities": 58439,
  "abric": 28897,
  "Wunused": 51748,
  "èµļ": 102223,
  ">'.Ċ": 63720,
  ");čĊ": 736,
  "Ġresidency": 52866,
  "èº«å¿ĥåģ¥åº·": 118186,
  "Ġ................": 88914,
  "utable": 5922,
  "Ġworkspace": 27514,
  "ĠWrest": 44937,
  "âĢĵâĢĵ": 52413,
  "çļĦæĪĲéķ¿": 108450,
  "äº²åŃĲ": 107963,
  "èŁĭ": 119512,
  "ĠnajwyÅ¼": 140760,
  "×ŀ×ĵ×ķ×Ļ×§": 141202,
  "æı´åĬ©": 108440,
  "ï¯¾": 145111,
  "Ġannonce": 45220,
  "ĠÐ±Ð°Ð½": 141931,
  "Violation": 74971,
  "ĠìĪľ": 143802,
  "Ġpopulations": 21910,
  "ĠOvernight": 92468,
  "ä½ľä¸ºä¸Ģä¸ª": 106249,
  "ĠLegendary": 59089,
  ".FullName": 45989,
  "Å®": 148941,
  "éĢį": 103768,
  "ĠAssociations": 96089,
  "à¸Ħà¸ĩ": 126611,
  "rug": 71947,
  "Hash": 6370,
  "_opacity": 96707,
  "ulario": 32330,
  ",__": 67420,
  "ĠNavbar": 38309,
  "ĠÐ½Ð°Ð³": 143960,
  "Ġ×§×ĳ×ķ×¢": 140103,
  "å§Ĳå¦¹": 108571,
  "Tester": 58699,
  "-taking": 79571,
  "********************": 31947,
  "\\System": 84550,
  ".repo": 46169,
  "ÙħØµÙĦØŃØ©": 141121,
  "Ġrevisit": 64778,
  "'}),Ċ": 24817,
  "_cases": 41427,
  "Ġsubstance": 19699,
  "ĠØ±Ø³ÙħÙĬ": 138359,
  "ÖĦ": 146046,
  "]];": 97829,
  "à¸Ĥà¸±": 127861,
  "itous": 49755,
  "áĦ¢": 150473,
  "Ġ{...": 14916,
  "Ġ*/}Ċ": 21654,
  "ä¿Ŀåħ»": 105423,
  "-enter": 48215,
  "ĠcenterX": 89801,
  "_submission": 75866,
  "æĬķèµĦèĢħ": 104055,
  "rowing": 24181,
  "ÙĪÙĨØ©": 134470,
  "å½±éĻ¢": 110762,
  "ador": 5364,
  "ĠÑĤÑĢÐµÐ±Ð¾Ð²Ð°": 139907,
  "ĠØ§ÙĦØ§ÙĨØªØ®Ø§Ø¨": 138751,
  "ĠTurbo": 47175,
  "é¢ŀ": 121716,
  "Picture": 24669,
  "âįµ": 149653,
  "Rates": 82623,
  ".ViewModels": 38518,
  ".getElementById": 4749,
  "ologies": 9090,
  "/forms": 25424,
  "TRGL": 13457,
  "urls": 20502,
  "ĠBernie": 29224,
  "ĠChamber": 31379,
  "×ĳ×Ļ×ĺ×ķ×ľ": 139851,
  "Ġgep": 82942,
  "éŁ": 99374,
  "mittel": 91184,
  "Ġdensity": 17457,
  "áĭ«": 147682,
  "âĶ¼": 146529,
  "Ġ{Ċ": 341,
  "ĠÙĪØ¥": 126530,
  "æ·±æ·±çļĦ": 112474,
  "verbosity": 65210,
  "Ġals": 10712,
  "×¤×¢": 124286,
  "Ġjean": 96621,
  "ĠSodium": 82441,
  "Ġgarage": 19277,
  "Ġjuris": 45895,
  "Ġkvinn": 49973,
  "æĿĵ": 119678,
  "Ġcalifornia": 78857,
  "ï½¢": 140818,
  "èĤ©è´Ł": 115486,
  "ĠìļĶ": 85997,
  "ĠHF": 50558,
  "Ġhonda": 84376,
  "ĠgÃ¶rÃ¼n": 131389,
  "IRM": 32432,
  "ĠQuÃ½": 135595,
  "detail": 14585,
  "ĠÐ°Ð²ÑĤÐ¾Ð¼": 125347,
  "Ġcredible": 41910,
  "à¸Ńà¸²à¸¨": 136560,
  "Ġeating": 12182,
  "å¥ĸéĩĳ": 107998,
  "_SHIFT": 22657,
  "oe": 4644,
  "åĥ¹åĢ¼": 111989,
  "æ¡ĤæŀĹ": 108857,
  ".mode": 22981,
  ".jpeg": 30675,
  "(Parameter": 86812,
  "Ġpoets": 72972,
  "_UNKNOWN": 31546,
  "åĳ¼ãģ³": 142622,
  "Ġquesti": 84681,
  "//:": 91129,
  "ĠCous": 60469,
  "é¸¯": 119380,
  ":čĊčĊ": 31980,
  "_ot": 65614,
  "ä¸įåĨį": 102080,
  "ĠÅĽc": 139587,
  "matches": 19914,
  "Ø¯Ø§Ø¹": 127467,
  "ð«ĲĦ": 122213,
  "Ġcylindrical": 78510,
  "ĠSubstance": 94287,
  "ĠCauses": 73005,
  "Ġcrashing": 45474,
  "_lib": 16142,
  "âĢĿ;": 65445,
  "igation": 17930,
  "iao": 22516,
  "ĠPetr": 95776,
  "ìŃĿ": 148350,
  "(ag": 92737,
  "Ġayuda": 73659,
  "åį°èĬ±": 116202,
  "Ð¢Ðķ": 136794,
  "_coverage": 73384,
  "Î¤": 145032,
  "ĠÐ¼Ð°ÑĤÐµÑĢÐ¸Ð°Ð»": 128076,
  "fu": 32621,
  "!!.": 24426,
  "Ġspheres": 65718,
  "ĠCFG": 46825,
  "Ġmarkers": 23962,
  "antes": 15477,
  "Discovery": 67400,
  "Ġweeds": 69435,
  "EG": 9376,
  "ĠThanksgiving": 36150,
  "ØªØµÙħÙĬÙħ": 134235,
  "ĠAccessed": 97300,
  "-frame": 46767,
  "Ġrenewal": 42801,
  "ðŁ§¹": 148037,
  "DEPTH": 84854,
  "ĠAIM": 86768,
  "ĠLease": 80651,
  ")')Ċ": 33013,
  "Ġclashes": 51510,
  "åįĩçº§": 100402,
  "ĠArbeit": 57803,
  "Ġovercrow": 87104,
  "å±ī": 119342,
  "afka": 21883,
  "-heart": 42244,
  "*:": 80103,
  "íĺĦ": 126407,
  "Ø¯Ø§Ø¹Ø´": 136761,
  "ç«Ļç«ĭ": 115113,
  "å½ĵå¹´": 104207,
  "å»¿": 119540,
  ".borrow": 83640,
  "ĠGalactic": 75217,
  "Ġhumiliating": 91738,
  "Ġbeverage": 42350,
  "Ġinception": 53429,
  "åħ·ä½ĵåĨħå®¹": 117865,
  "Letter": 34264,
  "ĠMoÅ¼": 141416,
  "quierda": 86381,
  "WidgetItem": 45322,
  "Ġdemographic": 37362,
  "ĠHttpServletRequest": 49594,
  "piÄĻt": 142030,
  "ĉImage": 53397,
  "ĠTop": 6909,
  "_finalize": 70616,
  "Æ§": 148557,
  "è¡Įè½¦": 110386,
  "Ġwithdraw": 14798,
  "PDF": 23424,
  "Il": 12050,
  "åĩĮ": 100812,
  "è¿Ľåİ»": 104880,
  "Ġpet": 6753,
  "ÙĪØ§": 123920,
  ".int": 6403,
  "å°İ": 100593,
  "_zoom": 56736,
  "|,Ċ": 50188,
  "ä¸įæĸŃ": 99607,
  "å¼Ģçİ©ç¬ĳ": 112177,
  "@AllArgsConstructor": 66885,
  "çĹĩ": 99769,
  "Ġsweater": 60121,
  "Ġtopics": 13347,
  "/request": 53007,
  "ĠCafÃ©": 65671,
  "Ïģ": 38079,
  "Ġestaba": 63224,
  "Ġespacio": 65484,
  "Ġhurdles": 72535,
  "å®ŀä¹łçĶŁ": 115092,
  "Ú£": 150391,
  ".BorderStyle": 28781,
  "]\",": 19076,
  "ä¸Ĭãģ®": 134737,
  "aro": 17165,
  "anguage": 2616,
  "ï¾ħ": 144790,
  ".Process": 29012,
  "_Context": 71994,
  "ĠÙĬÙĪØ³Ùģ": 141174,
  "Ġunder": 1212,
  "ĠConstructs": 47213,
  "_single": 19487,
  "çĶµè§Ĩæľº": 115281,
  "â¤·": 149061,
  "èĥ½ä¸įèĥ½": 105976,
  "ĠImmediate": 80310,
  "_Type": 13729,
  "ĠBethlehem": 94958,
  "æ²»çĲĨ": 100730,
  "ĠkiÅŁinin": 137522,
  "(saved": 14217,
  "???ĊĊ": 94521,
  "èĭıèģĶ": 108245,
  "åħ»æ®ĸåľº": 116917,
  "Ġlhs": 22505,
  ".Observer": 85721,
  "otic": 14212,
  "SK": 15699,
  "Ġcurvature": 82133,
  "Ġanni": 44574,
  "æ©Ħæ¦Ħ": 112849,
  "ä¼łæŁĵ": 103536,
  "ĠĠĠĠĠĠĠĠĠĠĠĠĠĠĠĠĠĠĠĠĠĠĠĠĠĠĠĠĠĠĠĠĠĠĠĠĠĠĠĠĠĠĠĠĠĠĠĠĠĠĠĠĠĠĠĠĠĠĠĠĠĠĠĠ": 5238,
  "ĠProvince": 37794,
  "åĮĸçŁ³": 113390,
  "ĠØ§ÙĦØ§ÙĨ": 125696,
  "entities": 10499,
  "hee": 49053,
  "_Buffer": 55040,
  ",O": 74349,
  "ĠJung": 49332,
  "åı¯ä»¥åľ¨": 104964,
  "Óª": 148247,
  "éĺĮ": 122875,
  "Ġgracefully": 78499,
  "UILTIN": 85599,
  "_mult": 26290,
  "Ġthrust": 29885,
  ">b": 51407,
  "xBC": 80979,
  "Ġ×Ķ×¨×Ļ": 129933,
  "æĺ¨æĹ¥": 105188,
  "Ġfart": 97495,
  "Ġyoungster": 82271,
  "æĵĲ": 123511,
  "çĤĨ": 122349,
  "ĠMiami": 17584,
  "_HINT": 74457,
  "(CONT": 98747,
  "ãĥĥãĤ·": 127299,
  "_experiment": 82302,
  "++,": 22432,
  "IRQ": 61315,
  "Ġregister": 4161,
  "TimeStamp": 66146,
  "ĉstartActivity": 95828,
  "acute": 31490,
  "olic": 7762,
  "âļĵ": 146401,
  "edor": 24358,
  "bstract": 48494,
  "ĠrÃ³wn": 60374,
  "×©×¨×ª": 132292,
  "fp": 10852,
  "-General": 57982,
  "esto": 51425,
  "ĠSupreme": 13506,
  "',\"": 37587,
  "ä¹ŁéľĢè¦ģ": 108335,
  "Ġbbc": 90626,
  "ĠSunrise": 87188,
  "çĴİ": 121546,
  "ï¸´": 151236,
  "Ġhon": 5831,
  "ãĥ±": 145447,
  "ĠBraz": 72311,
  "Ġ##Ċ": 47726,
  "Indexed": 69941,
  ">X": 76329,
  "ĠEven": 7418,
  "_OCCURRED": 35746,
  "ĠMarketplace": 57258,
  "Secret": 19773,
  "Ġwinners": 25448,
  "Ø±Ø¹Ø§ÙĬØ©": 136908,
  "ä´ĺ": 123469,
  "uspend": 12758,
  "çħ§æĺİ": 105865,
  "beros": 92795,
  "ĠÙĦÙĨ": 129225,
  "(State": 49196,
  "Ġreap": 56903,
  "å¾Įãģ®": 133934,
  "å¤§å®¶éĥ½åľ¨": 110220,
  "nilai": 75591,
  "Ġbeans": 26896,
  ".Ma": 92967,
  "ðĿĵ±": 150078,
  "ager": 1409,
  "dataType": 57694,
  "DBG": 27344,
  "âĿ±": 146492,
  ".combine": 89290,
  "Ð½Ð½ÑĭÐ¹": 134649,
  "ä¸įæĸŃå¢ŀå¼º": 113878,
  "Ġconst": 733,
  "ĠKodi": 81312,
  "é»ĳå¤ľ": 117507,
  "ĠFulton": 88884,
  "ĠklientÃ³w": 138341,
  "termination": 88676,
  "Ã¡i": 124900,
  "ĠÐ¼ÐµÑĤÑĢÐ¾": 140184,
  "çŃīä¸Ģç³»åĪĹ": 109375,
  "Ġpioneering": 70574,
  "&id": 42621,
  "ðªŁ": 122568,
  ".Parameters": 13062,
  "ĠOK": 10402,
  "Ġclimb": 25367,
  "Ġdehydration": 98757,
  "ä½ıå®¿": 106285,
  "äºĮåįģäºĶ": 117920,
  "ĠDirector": 10560,
  "Ġime": 74434,
  "ense": 1117,
  "aside": 28512,
  ".scroll": 16477,
  "à¸ªà¸ĸà¸²": 138653,
  "Ġprotections": 36324,
  "Ġdebian": 96078,
  "åĺ±": 103769,
  "ä¸Ģç§į": 101053,
  "atas": 19346,
  "åĨľæĿĳ": 101089,
  "Ġcredited": 40757,
  "âĢ¶": 148834,
  "Ġautomotive": 39408,
  "ëłĪìĿ´": 135152,
  "itals": 16265,
  "èį·åħ°": 108111,
  "Ġunicorn": 81830,
  "èĵĦ": 100979,
  "FTWARE": 8247,
  "Ġnumeral": 83292,
  "ä¸Ńåħ³æĿĳ": 114180,
  "ãģ¾ãģŁ": 52800,
  "èº«ä»·": 117028,
  "isto": 25339,
  "Recording": 52856,
  ".Byte": 32119,
  "(exp": 25865,
  "Ġenact": 46947,
  "åİŁæĿĲæĸĻ": 106820,
  "egra": 87575,
  "Ġdebounce": 76839,
  "à¹Ħà¸¡à¹Īà¸§à¹Īà¸²": 134478,
  "_answer": 28534,
  "MouseDown": 69926,
  "-from": 38051,
  "Updates": 37091,
  ".bold": 31675,
  "('#": 3515,
  "å°ĭ": 114577,
  "_CHANGED": 48099,
  "precision": 27182,
  "ĠEllison": 81647,
  "Transmission": 91201,
  "Blur": 31498,
  "ĠSamurai": 88018,
  ".har": 86455,
  "ĠPressure": 38990,
  "Ġmáº¡ch": 135498,
  "ãĤĴè¦ĭãĤĭ": 133056,
  "æĹ¶": 13343,
  "çļĦåĪ©çĽĬ": 107588,
  ".isVisible": 65066,
  "Ġsofter": 63130,
  "éķĺ": 121776,
  "íĤħ": 151068,
  "Finding": 51422,
  "íķļ": 151094,
  "Ġwollte": 96434,
  "Ġperformed": 10660,
  "Normally": 94194,
  "×Ĳ×ŀ×Ł": 135370,
  "Ø§Ø¦ÙĬ": 124863,
  "Ġreliably": 56382,
  "×Ĳ×ŀ×¨": 129025,
  "åªĴä½ĵæĬ¥éģĵ": 109834,
  "LF": 22609,
  "ĉglfw": 85509,
  "ĠÐ³Ð¾Ð»": 138325,
  "×ķ×Ĵ": 123945,
  "ì¥°": 150018,
  "rieving": 67704,
  "ĠbiÃ§": 137454,
  "ĠrÃ©fÃ©rence": 140500,
  "PAGE": 37374,
  "Ġ\"--": 14482,
  "[msg": 61684,
  "=g": 37162,
  "heimer": 34080,
  "Ġmainly": 14576,
  "ç¥Ńç¥Ģ": 113754,
  ".Should": 26693,
  "ĠRobbie": 73132,
  "iyor": 83342,
  "æ²³åįĹçľģ": 105993,
  "ØªÙĥÙĦ": 128178,
  "éĻ": 13982,
  "Ġë§Įëĵ¤": 127579,
  "ctica": 49029,
  "ĠÑģÐµÐºÑĢ": 143543,
  "/go": 25525,
  "ï¾Ĺ": 144396,
  ".Token": 32277,
  "(machine": 80212,
  "wolf": 76230,
  "ĠMormons": 91873,
  "ĠAcad": 12364,
  "Ġ&)": 65387,
  "å¤§æ¦Ĥ": 102201,
  "`;": 77582,
  "ÙĬØ³Ø±": 141905,
  "(hWnd": 65261,
  "Ð½ÐµÑĤ": 125778,
  ".ReadKey": 60965,
  "Ġobservations": 23722,
  "×Ĵ×ľ×Ĵ×ľ": 141318,
  "ev": 5120,
  "Ġconfigs": 42309,
  "ifest": 6962,
  "ðĿĹª": 148783,
  "apikey": 72174,
  "ĠGolden": 17809,
  "×©×ŀ×¢": 130106,
  "ØªÙĪÙĤØ¹": 131016,
  "éĹ®è´£": 110258,
  "Ġreception": 23117,
  "/rss": 85291,
  "moth": 67404,
  "rÃ¼ck": 129579,
  "ĠPaste": 57225,
  "();ĊĊĊ": 17745,
  "å¸½åŃĲ": 109183,
  ".mapbox": 98218,
  "ĠwÅĤaÅĽ": 140617,
  "ĠPUT": 34380,
  "water": 12987,
  "åĨ³ä¸į": 113179,
  "Ġcoch": 79081,
  "àªľ": 150143,
  "æ©¡èĥ¶": 108503,
  "å°ıä¼Ļä¼´ä»¬": 113227,
  "oga": 14034,
  "æĮ£æīİ": 110197,
  "ç¡®": 33956,
  "Ġdummy": 17292,
  "ïŃ«": 148674,
  "ilion": 48912,
  "[axis": 95806,
  "ĠØ§ÙĦÙĦØ¬": 133505,
  "ë¶Ī": 134836,
  "Ġfundamental": 15811,
  "companies": 64751,
  "ĉtxt": 68272,
  "ĠKawasaki": 97438,
  "pls": 56986,
  "Ġimagem": 62897,
  "]={Ċ": 95525,
  "é¹Ķ": 123274,
  "Ġembarrassing": 44005,
  "ymb": 3356,
  "/conf": 59241,
  "ragments": 41956,
  "Ġpaciente": 72412,
  "Ø§ÙģØ¸": 125859,
  "Ġseperti": 67720,
  "æľįè£ħ": 104498,
  "ujet": 67907,
  "Ã³digo": 32743,
  "ĠExplanation": 71287,
  "querque": 67608,
  "QRST": 70592,
  "_plot": 24351,
  "nick": 20406,
  "ĠÑĤÑĭÑģ": 138994,
  "ĉInputStream": 95598,
  ">(*": 60674,
  "Reviewed": 79672,
  "Nuitka": 98410,
  "_Cell": 54454,
  "bang": 27174,
  "Ġrst": 55515,
  "Ġswamp": 66072,
  "ĠAlexander": 20042,
  "uetooth": 16412,
  "ĠëĲľëĭ¤": 130723,
  "ä»İäºĭ": 101193,
  "×ł×ķ×¢×¨": 136758,
  "ĠØ§ÙĦØ¥ÙĦÙĥØªØ±ÙĪÙĨÙĬ": 134155,
  "_apps": 69899,
  "å±ıéļľ": 114194,
  "åĢ©": 109250,
  "(as": 36951,
  "Ġspoil": 64793,
  "ìĤ¬": 55054,
  "-setup": 78097,
  "ulators": 41291,
  "åĬ©æĶ»": 110989,
  "Ġ×Ĺ×ĵ×©×Ļ×Ŀ": 132986,
  "Ġdengan": 20414,
  "Ġtornado": 44172,
  "prt": 88697,
  "Ġscheduler": 28809,
  "Ġcampaign": 4796,
  "Ġ****************": 46846,
  ".scrollTo": 54991,
  "Ġ#ĊĊ": 58606,
  "CLIENT": 45271,
  "mutex": 22366,
  "imeo": 50888,
  "ccione": 66319,
  "Ġå¼Ģ": 81947,
  "Ġxhttp": 96197,
  "ĠSOME": 65555,
  "_meas": 95786,
  "ystate": 42904,
  "ìĽ½": 148883,
  "BaseContext": 93824,
  "ãĢĳ,ãĢĲ": 98543,
  "/socket": 55480,
  "_reserve": 89591,
  "ĉpanel": 44952,
  "¯": 107,
  "ĠgetDate": 60166,
  "ĠSeahawks": 44926,
  "Ã¶nÃ¼": 139399,
  "ĠÙĤÙİØ§ÙĦ": 142086,
  "ÙĪÙĩØ§": 137419,
  "å¹¿éĺĶçļĦ": 109795,
  "Ġ×ĳ×Ł": 129218,
  "CK": 3021,
  "ĠFin": 5649,
  "ĠPed": 19318,
  "Ġsubclass": 37190,
  "Ġ×Ĺ×ķ": 126462,
  "Ġcorrelate": 80484,
  "ylabel": 49761,
  "ĠÐ·Ð°Ð±": 140335,
  "lagen": 54708,
  "otlin": 15345,
  "Ġinsn": 76102,
  "çķĮç¬¬ä¸Ģ": 117483,
  "licing": 89114,
  "Ġnull": 845,
  "TextStyle": 72963,
  "à¸Ļà¸±à¹Īà¸ĩ": 130618,
  "ëį§": 144443,
  ":'/": 70282,
  "Ġcodec": 34647,
  "ĠDropDownList": 98755,
  "Ġestimates": 17530,
  "åĨħç½®": 115654,
  "ĠØ§ÙĦØ¹ÙħÙĦÙĬØ©": 137637,
  "ework": 2445,
  "acid": 57056,
  "ment": 478,
  "baugh": 61639,
  "Ð¾Ð²Ð¾Ðµ": 135885,
  "ĠÄĲÆ°á»£c": 135632,
  "å»º": 25807,
  "KeyPressed": 69320,
  "Ġwnd": 80432,
  "Ð°ÐºÑģ": 93078,
  "imm": 12543,
  "Ġtaxis": 89503,
  "Ġ×©×Ŀ": 128768,
  "å®īä¸ľ": 116526,
  "Ġmysqli": 9938,
  "uild": 1498,
  "Ġitaliana": 88359,
  "Ġà¸Ķà¸±à¸ĩà¸Ļà¸±à¹īà¸Ļ": 133794,
  "Ġà¸ķà¸¸à¸¥à¸²à¸Ħà¸¡": 142916,
  "pn": 19958,
  "Ġdisple": 84234,
  "ê°¯": 144887,
  "GetMapping": 27849,
  "Ġà¸ŀà¸¤à¸©à¸łà¸²": 143148,
  "Ġmart": 48195,
  "ĠØ³ÙĪÙģ": 131959,
  "LastName": 27920,
  "'on": 53286,
  "ĠOffers": 51318,
  "ppy": 33963,
  "Ġacciones": 93385,
  "ÐµÐ½Ð¸Ñİ": 130201,
  "tÃ³": 128644,
  "è·ı": 120922,
  "mozilla": 50345,
  "Ġmalformed": 79250,
  "ĠGetData": 75016,
  "Six": 41460,
  "å¥ı": 101477,
  "ÙħØ±ÙĥØ²": 137691,
  "Ġ\"/\";Ċ": 79480,
  "æĦŁãģĺãĤĭ": 136403,
  "_DATA": 7896,
  "æĿĨèıĮ": 118039,
  "ãģĿãģĹãģ¦": 79439,
  "Ġspinal": 49012,
  "roids": 40094,
  "ĠCommittees": 67917,
  "äº¨": 110039,
  "Ġpracy": 81209,
  "(level": 23669,
  "ðŁĲī": 148713,
  "ĠcrÃ©dito": 134517,
  ".requires": 82917,
  "_WRONLY": 88649,
  "Ġwatershed": 91356,
  "Ġthem": 1105,
  "ãĢĤâĢľ": 53647,
  "×¢×ľ": 124681,
  "ĠMush": 58105,
  "áĳķ": 145319,
  ".depend": 59234,
  "ienen": 31261,
  "Ø±Ø§Ø¨": 127106,
  "ĠNet": 9374,
  "ëĶľ": 144424,
  "Ġtrunk": 37311,
  "/Web": 50438,
  "NL": 30042,
  "Ġflood": 17726,
  "=y": 29368,
  "ĠHomemade": 84808,
  "ãĤ¨ãĥįãĥ«": 140474,
  "Ġ×Ĳ×ľ": 124612,
  "ĠÐ²Ð¾Ð·Ð¼Ð¾Ð¶Ð½Ð¾": 132656,
  "OOM": 57751,
  "ĠÄĳen": 133549,
  "Furthermore": 56317,
  ".creator": 79660,
  "gm": 26186,
  "à¸Ļà¸µà¹Ī": 126670,
  "æłĩ": 30844,
  "ðª¤Ĺ": 123306,
  "_animation": 48487,
  "éĹ¶": 122238,
  ".Resize": 77707,
  "ĠSlovenia": 78217,
  "IDX": 76113,
  "roles": 14643,
  "Ġinsufficient": 38313,
  "ĠHunting": 44254,
  "avatar": 11962,
  ".student": 40113,
  "æĮ½": 101821,
  "_pa": 55475,
  "Ġshrinking": 62085,
  "Ġjudged": 44387,
  "panel": 7429,
  "åĽ°å¢ĥ": 106499,
  "Ġ$('.": 9607,
  "ĠUserDefaults": 61792,
  "ediator": 87694,
  "æŀģåħ·": 109632,
  "Ġjunge": 63657,
  "Ġplainly": 64295,
  ".requestFocus": 72580,
  "_memcpy": 78038,
  "ĠCambridge": 23641,
  "¦¬": 56823,
  "uels": 60144,
  "osomes": 57275,
  "bgcolor": 95900,
  "ĠcaracterÃŃsticas": 92454,
  "Ġbegr": 87541,
  "Ġrespuesta": 43360,
  "ĉfor": 2023,
  "Snake": 83420,
  "ĠÐºÐ¾Ð¼Ð¿Ð°Ð½Ð¸Ñı": 134979,
  "çĸ²æĥ«": 111130,
  "é«ĺéĵģ": 104963,
  "kit": 8226,
  "Ġnth": 55129,
  "ãĥ¼ãĤ¹": 60298,
  "Ġcurry": 54078,
  "ĠBauer": 78601,
  "translate": 14045,
  "Ġrespir": 32415,
  "å°Ĩåľ¨": 104743,
  "à¸Ħà¸·à¸Ļ": 130183,
  "ĠMarkt": 98317,
  "ĠarttÄ±r": 141653,
  ".Timer": 41143,
  "Ġtuition": 37938,
  "ĠSanchez": 47154,
  "#a": 13889,
  ".prevent": 12056,
  ".related": 47403,
  "é¥µ": 116216,
  "(Double": 35330,
  "Ð°Ð»ÑĮÐ½Ð¾Ðµ": 137618,
  "Topology": 60954,
  "à¹Ĥà¸£à¸ĩà¸ŀà¸¢à¸²": 139255,
  "Ġdiam": 12757,
  "ë§»": 150934,
  "-mediated": 80976,
  "ĠConfederate": 56357,
  "Ġjac": 59843,
  "ogg": 16108,
  "ĠDIS": 11977,
  "è¹¦": 112198,
  "Ġtripod": 91054,
  "!\".": 92993,
  "é¢ĳç¹ģ": 106689,
  "è´Łè´£": 100668,
  "ĠCY": 29569,
  "ĠTanzania": 68794,
  "raq": 10686,
  "å±ĢåĬ¿": 108322,
  "Ġ×ĳ×©×Ŀ": 136318,
  "Ġsurround": 8995,
  "Ġ×ķ×ľ×Ľ×Ł": 131601,
  ".es": 18550,
  "Ġswitching": 27765,
  "Giving": 96502,
  "_curr": 40515,
  "ĠUE": 29988,
  "ĠÑĦÑĥÑĤÐ±Ð¾Ð»": 138371,
  "ĠÐºÐ¾Ð¼Ð¿Ð°Ð½Ð¸Ð¹": 142490,
  "éĩĭ": 103732,
  ".Points": 89270,
  "ĠWritten": 33891,
  "_mag": 48310,
  "Ë¬": 148487,
  "ĠKann": 77211,
  "ðŁį¤": 147865,
  "off": 1847,
  "è§Ĥ": 99237,
  "Ġ×¨×ķ×¦×Ķ": 129469,
  "ĠSetup": 18626,
  "åģ¥åº·ç®¡çĲĨ": 116930,
  "Ġaffordable": 16637,
  "Ġbuffer": 4147,
  "åĪļæīį": 105189,
  "ĠNorm": 20317,
  "æĥħç·": 115646,
  "ê¿ĺ": 148917,
  "paragus": 93689,
  "ĠEarlier": 46893,
  "_pitch": 51959,
  "ĠÑģÑĤÐ°Ð½ÐµÑĤ": 140735,
  "stop": 9495,
  "ĠÐ¿Ð»Ð¾ÑħÐ¾": 141466,
  "æłĩæĺİ": 117932,
  "-inner": 30899,
  "?(:": 56882,
  "ãĬľ": 149707,
  "Ġbattle": 8049,
  "\\\")": 62705,
  "_bound": 19447,
  "ĠMPL": 47356,
  "íŀĿ": 146648,
  "orro": 67569,
  "Ġrelieve": 47739,
  "Ġbuying": 11833,
  ".isdir": 48161,
  "Ã¼ler": 92071,
  "çĨľ": 121672,
  "ãģ§ãģĻãĤĪãģŃ": 131775,
  "jÄħcy": 133188,
  "èĤ²": 99241,
  "ç¡¬åº¦": 115719,
  "Ġcache": 6500,
  "Ġmia": 56253,
  "Ġstability": 19753,
  "å··": 105486,
  ".Sm": 92445,
  "=input": 39067,
  "å¥¥åľ°": 118317,
  "aybe": 49791,
  "ÐºÐ¾Ñģ": 135337,
  "Ġserait": 86164,
  "SAFE": 83788,
  "Ġfabricated": 69454,
  "ĠVacc": 58688,
  "ðĿĹĸ": 147248,
  "ĠÐĽ": 124805,
  "à¹Ģà¸ŀ": 124087,
  "ï®Ħ": 151178,
  "ØªØ®Ø·ÙĬØ·": 142257,
  "_Meta": 59812,
  "ìİ¼": 150989,
  "ĠMADE": 78699,
  "mare": 27655,
  "ä¾¿åı¯": 112676,
  "ĠVect": 90156,
  "Heart": 45384,
  "Fort": 33280,
  "Ġmuscle": 15747,
  "Ġunsere": 44367,
  "ï²İ": 151220,
  ".capitalize": 78498,
  "erce": 25641,
  "×¡×ŀ": 126625,
  "cards": 25024,
  "Fine": 63716,
  "Tax": 31349,
  "Ġdetectors": 67987,
  "Ġ').": 49884,
  "-Identifier": 36773,
  "×ĵ×ķ×ķ×Ĺ": 142909,
  "æ·»åĬł": 42855,
  ".fromCharCode": 68865,
  ",width": 41611,
  "_sig": 29252,
  "Ġsmith": 76721,
  "/sl": 82577,
  "çľ¼åīį": 102515,
  "ĠÐ²Ð¸Ð´Ðµ": 126994,
  "*N": 44629,
  "vim": 41194,
  ".decoder": 74047,
  "æľªç»ıæİĪæĿĥ": 117721,
  "å»ºæĪĲ": 101282,
  "Ġlicensing": 27406,
  "ĠâĹı": 50461,
  "_BC": 72247,
  "houette": 45625,
  "_step": 11946,
  "å®¢æµģ": 113378,
  ".Config": 10753,
  "ĠìŀĪëıĦë¡Ŀ": 136303,
  "Ġsepar": 4836,
  "å¿ħé¡»è¦ģ": 106072,
  "ÐĬ": 144563,
  "ĠĠĠĠĠĠĠĠĠĠĠĠĠĠĠĠĠĠĠĠĠĠĠĠĠĠĠĠĠĠĠĠĠĠĠĠĠĠĠĠĠĠĠĠĠĠĠĠĠĠĠĠĠĠĠĠĠĠĠĠĠĠĠĠĠĠĠĠĠĠĠĠĠĠĠĠĠĠ": 81221,
  "äºĭ": 29826,
  "Warn": 38244,
  "à¸£à¹īà¸²à¸Ļà¸Ħà¹īà¸²": 139228,
  "ð«ĺ¬": 123283,
  "+N": 71722,
  "sto": 33052,
  "ĉin": 17430,
  "track": 13131,
  "Ich": 40369,
  "Ġmgr": 57897,
  "æŁ¥çľĭåħ¨æĸĩ": 118214,
  "ìķ±": 144164,
  "ä¸Ģå®¶": 101949,
  "Ë¹": 149221,
  "dealer": 78235,
  "ĠtrÆ°Æ¡ng": 140996,
  "å¤ºåıĸ": 114058,
  "elmet": 74772,
  "Ġdeps": 48178,
  "Executor": 25255,
  "ãģĹãģı": 126403,
  "ĠIT": 8700,
  "æ°¸è¿ľä¸įä¼ļ": 115409,
  "Ġrailways": 95147,
  "ðŁıİ": 149185,
  "æĹłæ¯Ķ": 106343,
  "ãĤ¹ãĥĿãĥĥãĥĪ": 143569,
  "Ġwithin": 2878,
  "ĠUnified": 72434,
  "fasta": 94466,
  "ĉdiv": 63278,
  "æľ¬åŁºéĩĳ": 111958,
  "ì¸°": 145295,
  "Ġharm": 11428,
  "Ġcryptoc": 20220,
  "Ġ----------------------------------------------------------------------------": 23852,
  "empre": 36839,
  "_mul": 24944,
  "Ġ×©×¦×¨×Ļ×ļ": 138203,
  "çļĦä¸įåĲĮ": 106797,
  "ltk": 43671,
  "àºª": 147158,
  "ãĥģãĥ£ãĥ¼": 136171,
  "ê¿ī": 145607,
  "ĠchÆ°a": 128651,
  "ĠBarry": 30758,
  "Ġbarriers": 29640,
  "izzlies": 94695,
  "ĠweiÃŁ": 67278,
  "Ġkhiáº¿n": 128893,
  "Ġ:'": 53546,
  "retain": 55372,
  "ÄŁ": 11011,
  "gu": 8717,
  "reads": 30358,
  "à¸§à¸ĩà¸¨": 142575,
  "åĪĽæĸ°èĥ½åĬĽ": 112337,
  "Ġglut": 34069,
  "×ķ×ĳ×Ļ×ľ": 131220,
  ".views": 22056,
  "Ġâĸ": 14520,
  "Ġ'{": 11573,
  "ala": 6053,
  "Ġve": 5208,
  "Ġretiring": 59773,
  ";r": 85308,
  "Ġlesen": 75182,
  "ïºĤ": 146953,
  "ĠProtection": 19171,
  "å°Ĩ": 44063,
  "Ġcan": 646,
  "ìĥĺ": 144486,
  "Ġopcion": 72808,
  "Ġdispatch": 6845,
  "Ġimpartial": 67724,
  "çĶŁäº§ç»ıèĲ¥": 107079,
  "-big": 69411,
  "cem": 53821,
  "ĠPoints": 20725,
  "/The": 47748,
  "ÄĻ": 5156,
  "×Ļ×ķ×ª": 124600,
  "one": 603,
  "INTER": 15942,
  "Ø£ÙĩÙħÙĬØ©": 134505,
  "æķ°åŃĹåĮĸ": 104721,
  "Ġmysteries": 56600,
  "ĠÐ¿ÑĢÐµÐ´Ð¼ÐµÑĤ": 136705,
  "èĦĺ": 120742,
  "à¸ªà¸Ļà¸±à¸ļà¸ªà¸Ļà¸¸à¸Ļ": 133587,
  ".Groups": 59800,
  "å¾Ĺä¸įåĪ°": 109857,
  "ĠÐĿÐµ": 128544,
  "èĪ£": 122496,
  "{x": 45340,
  "æĤ¯": 119393,
  "KT": 33539,
  "ĠCustomers": 39589,
  "áĻ³": 151588,
  "ypse": 47478,
  "ĠSpecific": 28262,
  "ĠÐ¿ÐµÐ´Ð°Ð³": 142554,
  "Ġmanned": 88325,
  "\\)": 57758,
  "æĺİäº®": 108575,
  "Ġstudents": 4143,
  "hiÃªn": 136081,
  "ĠÅ»": 138128,
  "CAN": 41955,
  "*sp": 94422,
  "arged": 92249,
  "_DECLS": 94631,
  "ARG": 7581,
  "Ġbanners": 58372,
  "ÙĤØµÙĬØ±": 137362,
  "Ġfiner": 72786,
  "Ø¬Ø§": 129422,
  "ĠÙĬØ¬Ø¨": 129539,
  ".AI": 88778,
  "ãĢįãĢĮ": 58612,
  "åħħå®ŀ": 108300,
  "HEET": 82476,
  "ĠSad": 30681,
  "×ľ×ł×ĵ": 135881,
  "éķ¨": 123621,
  "Ġminus": 27283,
  "Ġcurves": 35933,
  "Ġpaul": 67011,
  "ĠProfessional": 21237,
  "ðŁĹ¾": 149361,
  "ðŁĺĽ": 144501,
  "core": 2153,
  "åįŀ": 119548,
  "Ġ>>": 3578,
  "Ø¯ÙĪÙĦØ©": 130360,
  "Ġdie": 2746,
  ".parents": 72761,
  "Ġdish": 12000,
  "à¸¢à¸¹": 129658,
  "Ġlimbs": 48595,
  "åĲĥäºĨ": 105705,
  "ä¹°å®¶": 108840,
  "LEN": 25317,
  "Ġ<*>": 69483,
  "getAttribute": 25635,
  "ĠWebcam": 46573,
  "Ã¼rnberg": 93356,
  "_COLUMN": 36183,
  "ãģ®ãģ§ãģĻ": 128774,
  "éĤ®": 64473,
  "åĵĢ": 103000,
  "Ġsurvivor": 48648,
  "à¸§à¸±à¸Ļà¸Ĺà¸µà¹Ī": 126496,
  "Ġtestify": 48162,
  "/check": 46619,
  "åĪĽæĬķ": 110360,
  "Ġrolls": 27373,
  "Narr": 63279,
  "çīĽå¸Ĥ": 114790,
  "/demo": 55160,
  "ĠAVL": 89667,
  "æµŃ": 122697,
  "Ġhttps": 3703,
  "mak": 48562,
  "à¸Ńà¸µà¹Ģà¸¡": 138889,
  "Ġunderscores": 71790,
  "ĠonSave": 77444,
  "Ġprob": 3566,
  "common": 5464,
  "ĠOpening": 40037,
  "å¨ĺå®¶": 117841,
  "owment": 75455,
  "Ġsadness": 50878,
  "ëĮĲ": 145061,
  "setup": 15188,
  "arde": 41341,
  "à¸«à¸¡à¸Ķ": 126686,
  "hover": 17583,
  "è§ģè¿ĩ": 102877,
  "à¹Īà¸Ń": 126859,
  "á¿ĩ": 147688,
  "-global": 73319,
  "(files": 32544,
  "â½´": 147264,
  "explain": 94344,
  "ìĹħì²´": 140349,
  "ĠBlind": 54270,
  "çĤ¹å¤´": 101760,
  "ëĮĺ": 150892,
  "Ġconfronting": 74767,
  "ertas": 52430,
  "Ġpeoples": 31438,
  "Ġscand": 54292,
  "ìľ¡": 126596,
  "èĩªæĪĳ": 104049,
  "endTime": 49688,
  "Ø¥Ø¬Ø±Ø§Ø¡": 127568,
  ".numericUpDown": 71592,
  "suit": 72040,
  "éĶĢéĩı": 104598,
  "Ġhottest": 37291,
  "Member": 9366,
  "ãĤĵãģłãģĳãģ©": 135561,
  ".variables": 51293,
  "íķĢ": 144355,
  "Ġundefeated": 92476,
  ".a": 5849,
  "à¹Īà¸Ļ": 123981,
  "ÙĤØ¯Ùħ": 125150,
  "oS": 72743,
  "ÑĨ": 10373,
  "Ġuranium": 53844,
  "åĴ±ä»¬": 104335,
  "Ġpsycho": 41011,
  "ÙĤØªØ±ØŃ": 139277,
  "éĤªæģ¶": 115270,
  ")čĊčĊ": 7229,
  ".RemoveAt": 53983,
  "ĉNamespace": 90823,
  "hydration": 80724,
  "ipers": 58835,
  ":no": 66479,
  "initializer": 46774,
  "ureen": 95572,
  ".setFill": 95771,
  "Startup": 39076,
  "è·º": 119456,
  "_flashdata": 48843,
  "åħ¬åħ³": 114260,
  "crawler": 74929,
  ".library": 39285,
  ".Icon": 26329,
  "bild": 60365,
  "æªĶ": 103555,
  "Ġinstructors": 53818,
  "ÑĢÐµÐ³": 138882,
  "ĠÐ±ÑĭÐ»": 128897,
  "emi": 21780,
  "ĠÑģÑĢÐ¾Ðº": 131561,
  "æ¦Ĥæĭ¬": 109193,
  "á¼´": 147132,
  "ðŁļ²": 146608,
  "éĥ¨éĥ¨éķ¿": 111322,
  "Ġhalluc": 58023,
  "Ġmailing": 32759,
  ".$.": 85387,
  "æµ´": 100969,
  "ĠØ³Ø¨ØŃØ§ÙĨ": 143751,
  "å®ĩå®Ļ": 105339,
  "jen": 23166,
  "Ġ/>": 6206,
  "Ġfq": 82467,
  ".Re": 2817,
  "ĠTelerik": 38846,
  "ĠLady": 20621,
  "ê³ª": 146638,
  "ĉdp": 55256,
  "Ġattorneys": 30334,
  "Ġedx": 63645,
  "Ġeffected": 88489,
  "çº§": 52334,
  "[âĢ¦]": 95232,
  "ĠÑģÐºÐ¾ÑĢÐ¾ÑģÑĤÑĮ": 143689,
  "ibia": 66237,
  "âĤ¨": 146534,
  "à¸Ľà¸£à¸±à¸ļ": 126812,
  "Ġrasp": 84046,
  "Ġtamanho": 69238,
  "åĪĨæŀĲå¸Ī": 108280,
  "ĠWarner": 31680,
  "èĢģ": 91777,
  "ĠChargers": 59593,
  "umlah": 30327,
  "az": 1370,
  ".RowCount": 72778,
  "ÐŁÐµÑĢ": 98574,
  "Decoration": 19431,
  "éĿ¢": 27091,
  "Ġexpressive": 77123,
  "åħļæĶ¯éĥ¨": 102419,
  "ĠhÃ¤": 52656,
  "ĠMadame": 83176,
  "strar": 22189,
  "æĢ»éĺŁ": 116500,
  "Ġtoilet": 26214,
  "APIView": 89850,
  "ĠSouthampton": 61151,
  "Ġprevailed": 84714,
  "ĠShadow": 24298,
  "_link": 7233,
  "Inner": 31597,
  "ĠonCancelled": 88500,
  "è¿ĻäºĽéĥ½æĺ¯": 108544,
  "Ø¯Ùħ": 124677,
  "æµĻæ±Ł": 101211,
  "_frames": 29319,
  "Ġupkeep": 96096,
  "è¿Ļåıª": 111648,
  "æĬļåħ»": 113484,
  "åŀµ": 122413,
  "Ġventilation": 55134,
  "ĠVest": 55888,
  "ĠMed": 3264,
  "ĠØ§ÙĦÙħØ³ÙĦÙħ": 134926,
  "PU": 6325,
  "shall": 19012,
  "elloworld": 95292,
  "ëĶª": 144722,
  "seq": 13262,
  "ĠVGA": 75356,
  "æīįè¡Į": 114712,
  "Callbacks": 44461,
  "rou": 581,
  "trx": 72461,
  "ĠtÃ¡n": 141873,
  "nn": 7370,
  "æĳ´": 123299,
  "+len": 88382,
  "Ġimplied": 6131,
  "âŀĸ": 144610,
  "CreatedBy": 91163,
  "_DELAY": 33410,
  "_identity": 46244,
  "ä½¿çĶ¨å¯¿åĳ½": 111876,
  "ìĦĲ": 151439,
  "ãĤªãĥ³": 127496,
  "éĢīä¸¾": 106265,
  "Ġoverlooked": 44436,
  "ĠInternalEnumerator": 75609,
  "ĉQString": 53031,
  "Ġoppose": 33034,
  ":absolute": 62239,
  "ĉresource": 50346,
  "åĴĮçĿ¦": 117809,
  "åĵ¥ä¼¦æ¯Ķäºļ": 115020,
  "çģµæķı": 116580,
  "_WARNINGS": 83830,
  "Ã¼ncÃ¼": 143389,
  "ë¹¡": 145049,
  "Ġalterations": 59986,
  "Ġholds": 9982,
  "INT": 3221,
  "æľīä»·åĢ¼": 111185,
  "ĠyaÅŁayan": 139862,
  "æłĿ": 120329,
  "Ġfilmm": 33526,
  "ĠDW": 37752,
  "èºį": 119199,
  "ä½įæĸ¼": 118230,
  "è¡¥åĬ©": 106512,
  "Ġcategorie": 95819,
  "ĠTalent": 54507,
  "fds": 64834,
  "ĠSl": 6852,
  "Ġinland": 76189,
  "Ġbouts": 95171,
  "å³¤": 120140,
  "LEVEL": 39877,
  "Ġ×ŀ×©×¤": 136213,
  "\"class": 30408,
  "é³": 99215,
  "æ¬ĬçĽĬ": 115656,
  "åĵªå®¶": 103474,
  ".ServletException": 53628,
  "Ġthrom": 83564,
  ".Graphics": 10410,
  "åĪĬ": 100296,
  "Ġflowing": 35512,
  "(userID": 77423,
  "Ġtore": 62008,
  "Ġemphasis": 24654,
  "è¸Ł": 121602,
  "Merchant": 84545,
  "athan": 13981,
  "à¸ģà¸²à¸£à¹ĥà¸Ĭà¹īà¸ĩà¸²à¸Ļ": 135125,
  "Ġframes": 14087,
  "-win": 47689,
  "ActionBar": 34659,
  "Ġtsunami": 71055,
  "kie": 30322,
  "ØªÙģØ§ØµÙĬÙĦ": 133018,
  "taient": 84706,
  "websocket": 83208,
  "ĠDigital": 14102,
  "ĠStudies": 18720,
  "Ġsessuali": 94869,
  "NSE": 71438,
  "å¹³åĩ¡": 107167,
  "×ł×Ķ×Ĵ": 127338,
  "'\"": 14913,
  "tÄ±m": 132948,
  "å¾Īé«ĺçļĦ": 110080,
  ".websocket": 94115,
  "æĪĳæīį": 111189,
  "Firstname": 93026,
  "à¹ĥà¸Ļà¸Ĭà¹Īà¸§à¸ĩ": 131864,
  "\");//": 40919,
  "Ġalum": 32960,
  "å¤§æķ°æį®": 104315,
  "ðŁĦ½": 150036,
  "ëĿ¡": 148509,
  "test": 1944,
  "Ġrunners": 38280,
  "Utilities": 22055,
  "Ġpraised": 36375,
  "ìļĿ": 150017,
  "Ã©ment": 41525,
  "ĠFirebaseAuth": 51981,
  "ä½Ķ": 118231,
  "Ġsoy": 28739,
  "Ġactual": 5042,
  "ĠØ§ÙĦØ¹ÙĦÙħ": 129726,
  "(\\'": 58136,
  "ATHER": 46139,
  "ÕŃ": 149310,
  "ĠAu": 32050,
  "ĠLÆ°u": 138019,
  "-west": 37602,
  "uve": 56023,
  "ç°": 99402,
  "è®°èĢħè¡¨ç¤º": 116289,
  "Ġconstructors": 54717,
  "ãģĬåºĹ": 131626,
  ".image": 7352,
  "ĠJacqueline": 98664,
  "umper": 24027,
  "_glob": 95133,
  "åĲĦåĮº": 114124,
  "å¤įå·¥å¤į": 107475,
  "æ±½è½¦è¡Įä¸ļ": 114964,
  "idea": 41777,
  "ãĤĵãģ§ãģĻãģĮ": 135064,
  "Ġworking": 3238,
  "Ġswagger": 60823,
  "ðĿĻ®": 151575,
  "CANCEL": 88493,
  "ĠCOMMENT": 50505,
  "Ġ--------------------------------": 19728,
  "æ©¥": 123477,
  "Ġseparately": 25156,
  "ĠdataSource": 29554,
  "ĠÐ¼Ð¾Ð³Ñĥ": 139572,
  "ĠHess": 98705,
  "ĠAdjustment": 91949,
  "éŁ³ä¹Ĳ": 101941,
  "pch": 70348,
  "íĸĪëĬĶëį°": 140490,
  "éĻĢ": 103441,
  "ä¸ĢåĿĹ": 104474,
  "Ġfid": 32104,
  "ĠÐ±ÑĥÐ¼": 142354,
  "Ġ(%)": 33955,
  "(\"\")Ċ": 31764,
  "×Ĺ×ĳ×¨×ª×Ļ": 134119,
  ".inc": 26797,
  "åĪĨãģĭãĤĬ": 135909,
  "ĉent": 77655,
  "éĢĻäºĽ": 105008,
  "ĠCab": 26108,
  "\\t": 4955,
  "|m": 90563,
  "SCRIPTION": 23409,
  "æĭįæĭį": 118909,
  ".ToBoolean": 89784,
  "ĠNeedle": 88800,
  "åıµ": 119558,
  "ĠKes": 82977,
  "(PHP": 83554,
  "Ġdiagn": 13191,
  "ĠwÅĤa": 81906,
  "Ġpau": 83195,
  "Ġlod": 35032,
  "Ġlegitimate": 22745,
  "ĠEL": 17258,
  "_est": 18583,
  "Ġquelle": 73840,
  "_Cancel": 97485,
  "å¶Ĵ": 123458,
  "âĻĿ": 149055,
  "æĬķéĻį": 113206,
  "ĠTube": 29024,
  "çĦŀ": 123081,
  "-component": 41387,
  "_bundle": 60986,
  "âĺ»": 145396,
  "Ġconten": 54011,
  "\\helpers": 43108,
  "ĠDirty": 54291,
  "queryString": 95888,
  "é¼ĵèĪŀ": 110306,
  "ãģ¦ãģıãĤĭ": 137097,
  "tre": 10157,
  "Orm": 80405,
  "Ġlogistic": 71710,
  "ippo": 87353,
  "ĠÅŁÃ¼phe": 142508,
  "åĬłå¿«å»ºè®¾": 112691,
  "Ġinvocation": 28696,
  "Ø·ÙĬØ¨": 136114,
  "ĠChampions": 28808,
  "Ġboots": 25236,
  "ĠPract": 17891,
  "ĠStringBuffer": 29891,
  "èİ«è¿ĩäºİ": 118612,
  "à¸Ĭà¸Ļ": 124698,
  "ĠLeo": 36748,
  "Ġsuma": 51313,
  ".way": 90888,
  ",w": 24558,
  "åįĸå®¶": 108602,
  "Ġalgun": 36471,
  "rzy": 87988,
  "ĠÙĨÙĩØ§ÙĬØ©": 134259,
  "è¶Ł": 103476,
  "Ġtells": 10742,
  "éĽĦåİļ": 111806,
  "à¸Ĺà¸µà¹Īà¸ĸà¸¹à¸ģ": 137770,
  "Ġwx": 9076,
  "ä¸įæĸŃæıĲåįĩ": 107493,
  "íĴį": 139139,
  "ĠWesley": 57606,
  "olio": 72167,
  "ĠHalifax": 69669,
  "tearDown": 82892,
  "ÙģØ§ÙĤ": 133172,
  "çķľç¦½": 115379,
  "åĮ»çĶ¨": 112011,
  "_TOOL": 57188,
  ".ec": 29188,
  "SERVER": 12915,
  "Ġwithstand": 50471,
  "ĠChronicle": 41059,
  "ĠWhen": 3197,
  "Slice": 33236,
  "æ¡§": 120332,
  "ĠPub": 22611,
  "ãĥĳãĤ½ãĤ³ãĥ³": 138948,
  "-handed": 36140,
  "Ġsandwich": 27874,
  "ĠOops": 95252,
  "-engine": 49625,
  "-Q": 28242,
  "æĹ¶éĻĲ": 114583,
  "Ã§i": 126325,
  "çļĦæ¶Īæģ¯": 105778,
  "~,": 54497,
  "æĭ¾": 102996,
  "JsonIgnore": 59322,
  "ĠBuffett": 85452,
  "Ġentail": 85992,
  "åĪĿå¿ĥ": 103164,
  "Ġissue": 4265,
  "ãģªãģıãģ¦ãĤĤ": 133799,
  "íĩĢ": 149799,
  "×ķ×ļ": 124456,
  "Lat": 23140,
  "ä¸įåĩº": 101480,
  "strap": 5092,
  "engu": 27004,
  "ÙĤØ¯": 124042,
  ".Manifest": 72272,
  "éģł": 102809,
  "ddd": 40360,
  "Ä¼": 145909,
  "Ġlatino": 91882,
  "ð«Ł": 101031,
  "ÏĮ": 75195,
  "-liter": 85594,
  "contest": 65717,
  "Ġyacc": 47364,
  "nothrow": 79381,
  "åİ»åģļ": 105715,
  ".BindingSource": 82167,
  "ĠPowerful": 74358,
  "ĠPermissions": 53357,
  "annies": 93242,
  ".roles": 47137,
  "experiment": 59429,
  "ÙħØµÙĦ": 141120,
  "Ø´Ø±ÙĪ": 136340,
  "ĠĠčĊ": 10419,
  "å°ıæĹ¶åĨħ": 112666,
  "å»ºåįİ": 116304,
  "Compact": 98335,
  "_USERNAME": 42696,
  "ĠuczniÃ³w": 143698,
  "ĠFTC": 78260,
  "×Ķ×¢×ĳ×¨×ª": 143639,
  "v": 85,
  ".Step": 68402,
  "ëŀ«": 144151,
  "éļıä¹ĭ": 103571,
  "PI": 1893,
  "Ġclimates": 91299,
  "ð«ĵ§": 122479,
  "ĠÙĤØ§Ø¦": 142760,
  "Ġ***/Ċ": 81554,
  "ÙħØ³ØªÙĤØ¨ÙĦ": 137475,
  "Ġanz": 77868,
  "è¯´æĺ¯": 106012,
  "Ġnarrowly": 63947,
  "ÅĶ": 148038,
  "ĠÐĶÐ¾": 128734,
  "ãĤ«ãĥª": 139721,
  "_transform": 18449,
  "åĤ»": 104888,
  "åİ¨å¸Ī": 114396,
  "|čĊ": 84539,
  "Ġadministr": 11150,
  "Ġannotate": 88398,
  "ACHI": 98568,
  "Ð´ÑĢÐµÑģ": 72090,
  "ĠNess": 87502,
  "Ð´ÐµÑĤ": 126620,
  "habit": 96702,
  "ĠAlert": 13975,
  "çĥŃéĹ¹": 106611,
  "_inputs": 28557,
  "VR": 18800,
  "Ġadults": 12598,
  "ãģĸ": 74594,
  "quis": 9202,
  "ĠDiego": 18336,
  "éĺĹ": 121283,
  "Ġ<<": 1115,
  "Ġgoed": 46401,
  "aye": 59955,
  "_EDGE": 52043,
  "ï¼Įé»ĺè®¤": 78903,
  "éĢ»è¾ĳ": 104913,
  "ì¹Ń": 141676,
  "éĶĥ": 120958,
  "vey": 5617,
  "å¥½ãģ¿": 140682,
  "fram": 91504,
  "_long": 17799,
  "èµ·äºĨ": 102300,
  ">Z": 63416,
  "ðŁĶĿ": 145557,
  "IFY": 15189,
  "çĥĶ": 122691,
  "_follow": 43490,
  "éľ¾": 103786,
  "Ġspill": 38797,
  "Ġastonished": 99074,
  "Ġpredomin": 33964,
  "DEST": 62571,
  "ï±´": 149858,
  ".resources": 36216,
  "-drive": 82410,
  "ergus": 32931,
  "ÅĽÄĩ": 24856,
  "ĠPresidents": 78639,
  "benchmark": 79186,
  "å¦ĤæŀľæĤ¨": 106870,
  "_AGENT": 52499,
  "ĠÙħØµØ¯Ø±": 137369,
  "Ð°Ð·": 18671,
  "gressive": 46719,
  "çĻ¾å¹´": 104881,
  "!čĊ": 45626,
  "åı¦": 99628,
  "æľīäºº": 101114,
  "Ġplac": 28860,
  "à¹ĥ": 69867,
  "çĤ¹éĴŁ": 115033,
  "à¸Ŀà¸Ļ": 136980,
  "íĶĦë¡ľê·¸ëŀ¨": 133496,
  "å¨ĵ": 120537,
  "Ġhaus": 70272,
  "Ġaddr": 10789,
  "à¸Ħà¸§à¸²à¸¡": 123971,
  "ãĤµãĥ¼": 130020,
  "èµĮåľº": 108972,
  "ð£²ĺ": 122241,
  "Ø³Ø§ÙĩÙħ": 135531,
  "ĠÐ¸Ð¼Ñı": 84656,
  "iliki": 65023,
  "ennen": 40193,
  "angement": 56633,
  "ĠÃĸ": 34037,
  "Ġsisters": 29293,
  "à¸ªà¸¡à¸²à¸Ĭ": 127149,
  "çĶµä»·": 114726,
  "×Ĵ×ĵ": 124443,
  ".navigateTo": 78408,
  "ĠXML": 11874,
  "Ġdigitally": 67778,
  "æĸ¹éĿ¢çļĦ": 104481,
  "ĠOption": 6959,
  "lyn": 18013,
  "èĩºåįĹå¸Ĥ": 113128,
  "Pagination": 44265,
  "ìķķ": 138771,
  "ĠDim": 8126,
  "}čĊčĊ": 2570,
  "defs": 48485,
  "ĉadd": 12718,
  "(Keys": 57723,
  "Ġupdated": 6049,
  "iesz": 49806,
  "ãĥ¢ãĥĩ": 134679,
  "ĠCas": 11054,
  "à¸ªà¸¡à¸ļà¸¹à¸£à¸ĵà¹Į": 138060,
  "Ġhar": 4855,
  "ĠOsw": 65221,
  "ĠLesbian": 52543,
  "Ġlegisl": 14963,
  "Ã§on": 52410,
  ".flat": 46405,
  "å£®": 100511,
  "Ġconnections": 13234,
  "ĉfile": 17661,
  "ä¸ľè·¯": 114162,
  "Ġinhibited": 98569,
  "åĿļå®Ī": 106403,
  "ĠÐ¸Ð½ÑĤÐµÑĢ": 96951,
  "çļĪ": 120163,
  "Ġaujourd": 74704,
  "Ð½ÑıÑĤÐ¸": 142756,
  ".Helpers": 47651,
  "ĠMonths": 51346,
  "_business": 65998,
  "ĠLogManager": 69365,
  "ocols": 22018,
  "ìĥĿ": 76435,
  "istol": 91768,
  "éĽŀ": 112527,
  "!;Ċ": 85318,
  "ĠBash": 38530,
  "(size": 6856,
  "èµ¢å®¶": 116264,
  "ĠBund": 29608,
  "-text": 9345,
  "åŃ¦éľ¸": 118173,
  "BackStack": 88476,
  "Hal": 55941,
  "transforms": 94833,
  "_bind": 27461,
  "Ġbanged": 93599,
  "Ã©ra": 75643,
  "åħ¸ç¤¼": 113953,
  "Ġ×Ķ×Ļ×ª×Ķ": 131288,
  "Ġfinal": 1590,
  "imon": 25417,
  "åįĩé«ĺ": 109061,
  "Ġnearer": 86820,
  "éģĲ": 119053,
  "è¿ĳè·Ŀç¦»": 114926,
  "Ġswapped": 56950,
  "Ġtimestep": 74578,
  "alien": 55318,
  "é¢ĦåĳĬ": 110137,
  "éĩįæĸ°": 70361,
  "Ġgluten": 37355,
  "Ġmirrors": 40485,
  ">'Ċ": 23431,
  "Ġstrikes": 22368,
  "íĮ": 66118,
  "ĠTransport": 16742,
  "ĠStep": 14822,
  "uktur": 84956,
  "Ġscored": 16548,
  "ĠFlush": 57626,
  "ë¦´": 135379,
  "ĠTrack": 19785,
  "ĠÐºÐ¾Ð½ÑĤÐ°ÐºÑĤ": 139405,
  "Ġsucceeded": 25331,
  "Ç¿": 147086,
  "istingu": 71169,
  "ä¸Ģæ¨£": 105981,
  "ĠContentValues": 55929,
  "Ġ\");": 36778,
  "Ġgrassroots": 56093,
  "Expression": 9595,
  "âĬĺ": 149398,
  "/frame": 67991,
  "ã¿": 122843,
  "Ġdbc": 79645,
  "åįģä¹Ŀå¤§": 115562,
  "?;Ċ": 37445,
  "Ġboundaries": 22711,
  "ubble": 14600,
  "Install": 24690,
  "åĲ¨": 101249,
  "ëĻĿ": 150276,
  "ĠServlet": 23124,
  "ç»ĦåĽ¾": 114185,
  "ĠCalculator": 36028,
  "unsubscribe": 90423,
  "å¥ĸåŃ¦éĩĳ": 112366,
  "æĹ¯": 119606,
  "ãģ¨ãģªãĤĬ": 127497,
  "Ġsaturated": 49485,
  "å¾Īå¤ļ": 99555,
  "rawidÅĤow": 139723,
  "Warnings": 20140,
  "Ø³ÙĦÙħ": 125271,
  "çħŀ": 109441,
  "Ġsendo": 61346,
  "ĠRc": 81463,
  "ĠFIT": 7456,
  "inclusive": 98361,
  "ðŁĺ¥": 145271,
  "Ġframeworks": 48025,
  "rup": 30622,
  "è¤Ĳ": 103608,
  "ossible": 23653,
  "\\Backend": 83531,
  "ĠNeural": 60477,
  "ÐµÐ²": 32642,
  "ĠPREFIX": 69978,
  "ä¸İ": 57218,
  "ose": 960,
  "Ġ>(": 36720,
  "City": 12730,
  "å©»": 123108,
  "-cons": 68504,
  "ĠqueryInterface": 94915,
  "ucci": 52369,
  "ÑİÑīÐµÐ¹": 133324,
  "Wrong": 29185,
  "ceptors": 57550,
  "ĠÃī": 28024,
  "ĠVolvo": 67252,
  "inn": 6130,
  "æķĽ": 103760,
  "×ķ×ľ×ĵ": 125339,
  "ĠSpotlight": 80299,
  "Family": 15192,
  "Ġ+#": 94743,
  "ĠFL": 12772,
  "ĉwindow": 23545,
  "ç¾Ĭ": 101187,
  "à¤¾à¤": 31411,
  "),ĊĊ": 18459,
  "ĠEssence": 83770,
  "ĠContest": 46533,
  "å«Įçĸĳäºº": 111769,
  "Ġcontraceptive": 98290,
  "ĠRemain": 91592,
  "Ġjusqu": 54298,
  "friends": 29462,
  "Ġreleases": 19232,
  "(assert": 75846,
  "ðŁĻĭ": 145402,
  "ĠPret": 61939,
  "ĠLabor": 14930,
  "Signal": 26810,
  "IgnoreCase": 16808,
  "Ġhiá»ĩu": 128423,
  "ç¯¦": 121787,
  "æĥħæĦŁ": 104934,
  "Ġnarrowing": 97767,
  "happy": 56521,
  "<Book": 58037,
  "mtx": 90310,
  "ÑĢÐ°Ð±Ð¾ÑĤÐ°ÑĤÑĮ": 132991,
  ".FileReader": 85732,
  "à¹ģà¸Ĭà¸¡à¸Ľà¹Į": 137447,
  "ĠDatabaseReference": 80046,
  "ĠØ§ÙĦØ·ÙĦØ§Ø¨": 140123,
  "Ġsimply": 4936,
  "ä¸Ńç§ĳéĻ¢": 113586,
  "åķķ": 120667,
  "Ġdormant": 88360,
  "æ¯Ķãģ¹": 134401,
  "_repeat": 41975,
  "åĬĽ": 47534,
  "æ¦ľ": 100108,
  "ĠBlick": 81287,
  "Ġosp": 63490,
  "-tier": 57255,
  "Ġfaulty": 57571,
  "Ġgenus": 63577,
  "å½¼ãĤī": 136283,
  "Ø¯Ø±Ø§Ø³": 127114,
  ".mid": 48071,
  "ÕĤ": 150048,
  ".bus": 48067,
  "åĪĨæŀĲ": 101042,
  "(gc": 78657,
  "Ġprefix": 9252,
  "åħ±æľī": 104678,
  "ç»ĵå±Ģ": 107062,
  "×ĥ": 144705,
  "ĠAutomatic": 33981,
  "Ġbeneficiation": 78219,
  "æĽĿ": 102378,
  "Ġplaza": 71998,
  ".Blocks": 97228,
  "ç»ĵæŀĦè°ĥæķ´": 113892,
  "åı¦æľī": 108427,
  "ERS": 4321,
  "æĪĸèĢħè¯´": 109165,
  "Ġwl": 44709,
  "ä½ĽæķĻ": 106121,
  "istros": 81950,
  "total": 5035,
  "taire": 70137,
  "ĠSymfony": 16015,
  ".SuspendLayout": 15541,
  "Ġ![": 97060,
  "ïŃ²": 151557,
  "Ġvideoer": 69057,
  "Ġoutcomes": 19554,
  "æµĨ": 101498,
  "\"};čĊ": 97937,
  "Ġ(!((": 95278,
  "º": 118,
  "ĠCHE": 49521,
  "Ġdespite": 8818,
  "Ġadolescent": 34988,
  "íĽĶ": 145045,
  "response": 2322,
  "çī¤": 119718,
  "æ½ľåľ¨": 106362,
  "opyright": 2171,
  "å¸ĮæľĽèĥ½å¤Ł": 110744,
  "ðĿĲº": 147023,
  "Ġfron": 77952,
  "ĠFemin": 56301,
  "ĠCGContext": 54243,
  "åħħè£ķ": 118663,
  "èĲİ": 103584,
  "Ø¯Ø§ÙĪÙĦ": 126996,
  "Ġbuses": 33380,
  "íĺĸ": 151109,
  "filme": 78335,
  "_spacing": 63328,
  "Ġacompanh": 60797,
  "ĠÐ·ÑĢ": 143220,
  "åĪ¶è®¢": 110745,
  "æıĲä¾ĽåķĨ": 113843,
  "Ġfelony": 36623,
  "×ķ×Ĵ×ľ": 128175,
  "seud": 39412,
  "Ġrevital": 78855,
  "-P": 9299,
  "ĠÑĦÐ°Ðº": 127481,
  "æĹ¥å¤ľ": 113406,
  "ycled": 36576,
  "ĠÐ³Ð°ÑĢÐ°Ð½ÑĤÐ¸": 137114,
  "ĠDialogue": 69489,
  "å¼±çĤ¹": 118507,
  "Ġrefl": 82435,
  ".setHeight": 90564,
  "Ġlangu": 82300,
  "åħ³åģľ": 118335,
  "ĠEventEmitter": 30004,
  "Buffers": 36219,
  "quake": 66718,
  "oints": 14399,
  "çĥŃå¸¦": 111074,
  "åĪ¶åº¦æĶ¹éĿ©": 111699,
  "æ¥Ĺ": 122984,
  "éłĨ": 109243,
  "ĠserÃ£o": 98424,
  "odigo": 13687,
  "_quick": 82094,
  "Ð°ÑģÑģÐ¸Ð²": 46660,
  ".eval": 31710,
  "employed": 35142,
  "éĺĪ": 120763,
  "Ġshow": 1473,
  "ĠClerk": 62140,
  ".bt": 36650,
  "Ġkidney": 37942,
  "ðŁįĴ": 145561,
  "ĠDe": 1581,
  "ï¼ĳ": 20109,
  "Báº¡n": 94917,
  "asje": 26846,
  "ĠKV": 84648,
  "_reading": 81859,
  "/disable": 87377,
  "Mozilla": 40030,
  "ãħĸ": 151604,
  "Ã¨ne": 46999,
  "(prefix": 28918,
  "Ġsyntax": 19482,
  "Ġqualified": 14988,
  "ologÃŃa": 53333,
  "åıªæĺ¯ä¸Ģä¸ª": 110266,
  "ÙĤØ¯Ø³": 127976,
  "Ġcms": 26270,
  "ĠCry": 42705,
  "ĉshort": 47981,
  "Ġdrummer": 67946,
  "amb": 2969,
  "&q": 62735,
  "EventHandler": 17945,
  "çĽ®åīįæŃ£åľ¨": 116710,
  "utors": 9475,
  "IMPORTANT": 98743,
  "Ġshooter": 31571,
  "-league": 87263,
  "ĠVIS": 59491,
  "×¢×ł×§": 133748,
  "×ĸ×ķ×Ĵ": 131623,
  "(contact": 47505,
  "urai": 47913,
  "åĩº": 20221,
  "å¾Īé«ĺ": 105440,
  "untas": 54572,
  "ĠOSError": 74242,
  "Ġdecidedly": 76020,
  "Ġetter": 55816,
  "×¢×ł×Ļ×Ļ×ł": 130533,
  "Ġkháº©u": 97610,
  "ĠØªØ¹": 126731,
  "ĠBurnett": 98894,
  "(board": 20770,
  "osaur": 57976,
  "Ġinjust": 97653,
  "ä¸¤å¼ł": 114420,
  "Pag": 47712,
  "Ġconflicting": 51033,
  "ÇĿ": 145817,
  "æ°Ł": 111550,
  "Subject": 13019,
  "Ġ{};ĊĊ": 20375,
  "ĠStuttgart": 82139,
  "creds": 85734,
  "Øı": 148566,
[...]
